//Autogenerated code
const unsigned int model_data_size = 17870;
alignas(16) const unsigned char model_data[model_data_size] = {
0x20000000,
0x54464c33,
0x00000000,
0x14002000,
0x1c001800,
0x14001000,
0x0c000000,
0x08000400,
0x14000000,
0x1c000000,
0x84000000,
0xdc000000,
0x74f60000,
0x84f60000,
0x5c160100,
0x03000000,
0x01000000,
0x04000000,
0x9606ffff,
0x0c000000,
0x1c000000,
0x3c000000,
0x0f000000,
0x73657276,
0x696e675f,
0x64656661,
0x756c7400,
0x01000000,
0x04000000,
0x98ffffff,
0x1a000000,
0x04000000,
0x08000000,
0x6f757470,
0x75745f31,
0x00000000,
0x01000000,
0x04000000,
0x4a09ffff,
0x04000000,
0x07000000,
0x696e7075,
0x745f3100,
0x02000000,
0x34000000,
0x04000000,
0xdcffffff,
0x1d000000,
0x04000000,
0x13000000,
0x434f4e56,
0x45525349,
0x4f4e5f4d,
0x45544144,
0x41544100,
0x08000c00,
0x08000400,
0x08000000,
0x1c000000,
0x04000000,
0x13000000,
0x6d696e5f,
0x72756e74,
0x696d655f,
0x76657273,
0x696f6e00,
0x1e000000,
0x94f50000,
0x8cf50000,
0x74f50000,
0x3cf50000,
0xe4f10000,
0x84f00000,
0x14c90000,
0x24c70000,
0x940b0000,
0x440b0000,
0xd4010000,
0xac010000,
0x04010000,
0xfc000000,
0xf4000000,
0xec000000,
0xe4000000,
0xdc000000,
0xd4000000,
0xcc000000,
0xc4000000,
0xbc000000,
0xb4000000,
0xac000000,
0xa4000000,
0x9c000000,
0x94000000,
0x8c000000,
0x6c000000,
0x04000000,
0x360affff,
0x04000000,
0x58000000,
0x0c000000,
0x08000e00,
0x08000400,
0x08000000,
0x10000000,
0x28000000,
0x00000600,
0x08000400,
0x06000000,
0x04000000,
0x01000000,
0xeb030000,
0x00000a00,
0x10000c00,
0x08000400,
0x0a000000,
0x02000000,
0x02000000,
0x04000000,
0x06000000,
0x322e3135,
0x2e300000,
0x9a0affff,
0x04000000,
0x10000000,
0x312e3134,
0x2e300000,
0x00000000,
0x00000000,
0x54ecfeff,
0x58ecfeff,
0x5cecfeff,
0x60ecfeff,
0x64ecfeff,
0x68ecfeff,
0x6cecfeff,
0x70ecfeff,
0x74ecfeff,
0x78ecfeff,
0x7cecfeff,
0x80ecfeff,
0x84ecfeff,
0x88ecfeff,
0x8cecfeff,
0xf20affff,
0x04000000,
0x96000000,
0x94b7bdb6,
0x98aef904,
0xf60bfc48,
0x2c4a315e,
0x607f554a,
0x30411314,
0x172a457f,
0x36321768,
0x712326ed,
0x575e18f9,
0xfd340de5,
0xc7c5b3af,
0x9fa5b1c4,
0xcff2da15,
0x25253d22,
0x44707f53,
0x20254f29,
0x2d150f19,
0x03d9c2bf,
0x155b4d4e,
0x12357f57,
0x39e34764,
0x431bf227,
0x1919f08b,
0x9bb18ca2,
0x56384d4b,
0x373e02f1,
0xf916d2d0,
0xbeb3b2ba,
0xb4818dc8,
0xf7b0cee5,
0xfdcab8ca,
0xb7c50207,
0xee1c1a39,
0x32347147,
0x65757f46,
0x2c2f1ff4,
0xf6f10000,
0x960bffff,
0x04000000,
0x18000000,
0xdee8ffff,
0xacadffff,
0x99bfffff,
0x4c8effff,
0xf9290000,
0x87ecffff,
0xba0bffff,
0x04000000,
0x60090000,
0x08f80a1a,
0x10131517,
0x07320803,
0xe2391446,
0x1e06c22d,
0x034240d2,
0xf824fc2a,
0x32eb0804,
0x000a030f,
0xda1af1f1,
0x1defa002,
0xcee758d0,
0xb6d0babe,
0x6fbec7e0,
0xbdf22fbd,
0x10f8fafa,
0x1410f9cb,
0xf4d834f8,
0xca93c099,
0x39c9e681,
0xda9227e3,
0x20c2fbe2,
0x01fb33f3,
0x2604ef21,
0x0bd420da,
0xf62919ae,
0xe8ba050b,
0x39b5fcd9,
0xeb2a2509,
0x1518e515,
0x371e380b,
0xde3f3a10,
0x2c0ae845,
0x26fd37fb,
0xd9283e0c,
0x2337e33f,
0x2a2c1122,
0x063026f8,
0xfdecf21d,
0x21011b06,
0xe1140625,
0x031e0f11,
0xca47f530,
0x16fec245,
0xfe4728da,
0x08011908,
0xf211f71c,
0x0a14070b,
0xc106efe3,
0x34dba5d8,
0xafc351ad,
0xaef4a4ba,
0x48b22bff,
0x1500de2b,
0x13ea15d8,
0x0312daa0,
0xd4a625fa,
0xe481d88c,
0x21dc1b86,
0xcd900cf2,
0x161b26ff,
0xe4343fc9,
0x22dcc82d,
0x35970daf,
0xd84b4fbe,
0x1cc2cf27,
0x45c503ef,
0xee2f1c20,
0x0f17e00f,
0x4b1b3c1e,
0xd6495b11,
0x5b1fd26f,
0x45173e2c,
0xd2540a1d,
0x3503031c,
0xfc06e621,
0x08f52c3b,
0x2232030b,
0x273a2554,
0xf1280241,
0x153df721,
0x0f4c1f35,
0xe61429ec,
0xf9e709fc,
0x3309fcf9,
0x162aea14,
0x06fc1012,
0xe10fdb2b,
0x33f1d322,
0x0d3918d8,
0x2de41707,
0x033b191c,
0x2af91528,
0xd5eae0d9,
0x50d3a3d7,
0xb3da54a5,
0xd3e3c7f2,
0x599e441b,
0x3819d32d,
0x081428fe,
0x0b12c3aa,
0xe1ae3ee4,
0xe0829ba3,
0x5ca1eb9f,
0xc6be18c1,
0x402e3c30,
0xe22d2df4,
0x33ebed34,
0xe9a7f687,
0xf9122181,
0xe2c812e7,
0x48bd0df8,
0xee29ec87,
0x13b5ad82,
0xbefe08b9,
0xaa0f87b3,
0xaff791d3,
0x9ce1f78a,
0xcab98189,
0xed0dbdd3,
0xa3def1db,
0x03b511c6,
0x119cf108,
0xdbe41207,
0xb103c6b4,
0xee1299ff,
0xccb5a3d3,
0xc5ad04d1,
0x8898b9d9,
0x078af2cd,
0xdea3a6b9,
0x07c9ca98,
0xebc690c7,
0xd18dd9ca,
0xe49dc7af,
0x93048a0c,
0xab93c292,
0x8196baf8,
0x979fc6d4,
0xa9c98f16,
0x0ea1ece9,
0xd7e90acf,
0x05bcc4b5,
0x8410bd9d,
0xd9a3b90b,
0x15b787b4,
0x020ac68b,
0xf49e9cb8,
0xda009816,
0xd7c30186,
0x26372741,
0xfb4bf74d,
0x341f1105,
0xc4260602,
0x56d6c01a,
0xcc035ee2,
0xe72cfa01,
0x2ecf1b43,
0x3127df4c,
0xf435fef6,
0x2a00b8e7,
0xc1ba6eb5,
0xc6dea3be,
0x55b9dec9,
0xbbd349be,
0x39203536,
0xfd42fd08,
0x0cd22324,
0xc89dc894,
0x2dd1f181,
0xaccb50e5,
0x28b5ead7,
0x14102409,
0x272f0a1b,
0xf40b0afc,
0x040fcfa4,
0xbbb23efd,
0xffaccaa8,
0x38ee1be8,
0xfa18f108,
0xfc1801fb,
0x2a0a2509,
0xede61506,
0x0bc4edb1,
0x00ee3eab,
0x07e80317,
0x26fe0741,
0xdd38fec4,
0xd9ccfa8e,
0xa1da9cf4,
0xd1c903e2,
0xc7a684ea,
0x8ca2dcc8,
0xe4bdd7ab,
0x05aaa7df,
0xaee0bdfa,
0x050cc5c9,
0x07c801b2,
0xe688daf5,
0xc896feb5,
0xe0fbc6e7,
0x0abffbe8,
0xd4988ca2,
0xf0ecaec8,
0xb89c9905,
0xe688d2af,
0x9e9cc1a4,
0xcef4d8e6,
0x818cca8d,
0x10c28a0a,
0xb4140cd8,
0x0486ff99,
0xbfe704a4,
0x8cb2def3,
0x8811d9a6,
0xf2029c9c,
0xd38c0614,
0xd2c8980a,
0xe493a5b2,
0xaabf94f9,
0xf9bcccc3,
0xa0e3fbf9,
0xd6c5c7a6,
0xf5e58ada,
0xf6a6d1cf,
0x08df8111,
0xb1d992f4,
0xac91fa04,
0x0d03cf08,
0xbab6c9f9,
0xad0edff1,
0x93cbeeaa,
0xd6ff9c8e,
0x08fdc0e7,
0xaddeb3d1,
0xe5ca9014,
0xe39f928b,
0xe0f6def1,
0xb3f5ccb6,
0x9c9aa8e6,
0x130bc6d0,
0xdebef9f0,
0xa9d7f704,
0xbf99a3ca,
0xaabbb1d6,
0x9805f9a8,
0xe3fb150e,
0xec040d0d,
0xc1baf0a3,
0xc7c3c303,
0xc8cb139d,
0xdcdd9106,
0xada59ea8,
0x9cef9df5,
0xbbbedb8f,
0x94ffeee0,
0x90fdcd11,
0x8ae88eec,
0x850186f2,
0xdfc1a6a6,
0xa6999a97,
0x87c2a511,
0x9e0900fe,
0x200ec81b,
0x28f3133d,
0xb3fc3a33,
0x1650c23b,
0x30575935,
0xa7090560,
0x4569a34c,
0xcd311328,
0xfef1d82f,
0x0735e8d1,
0xd36f207a,
0x22cbb67f,
0xf25de6ca,
0x1252f93e,
0xeedfc0ed,
0xaf0b089f,
0xa01bbfe7,
0x2eb48b28,
0xb1055aa3,
0xa2ef9de5,
0x2a9b0cfe,
0x141ecf10,
0xcaf1e0a5,
0x01aec5b4,
0xa6c91cbc,
0xc7a1a7a2,
0x27c138da,
0xffe2d519,
0x5e23431b,
0x8253feba,
0xeaeae41d,
0x20c8dfd2,
0xfa122bdf,
0xddfdfbed,
0x08331f44,
0xb30f126f,
0x0d7bb623,
0x2a322c45,
0x1a1f1720,
0x3a39f636,
0x373f3c45,
0xeb341f44,
0x3543d94c,
0x293e3d39,
0xf6360c26,
0xf416051f,
0x1e48111f,
0xf7040d54,
0x1e4530f7,
0xea351528,
0x24fd115e,
0x3b481a0a,
0xf803e00d,
0x47e1b82a,
0xf2286cdd,
0xb700c614,
0x6ebfaf23,
0xc0225da2,
0xcf31f216,
0x76b3c3ed,
0xbeed39dd,
0xa8e5cdc7,
0x6cd69ec2,
0x9bb17fbc,
0xccc1afa0,
0x66acc0c7,
0xaacd758c,
0xfad7e9cf,
0x05f9ea93,
0xdd9dff17,
0x1699d19a,
0x2606e6b5,
0xdeb32ec3,
0xf6a3eab0,
0x18e4da0a,
0xfeb8af0a,
0xc5a907b2,
0xe90d8ebe,
0x9805eeb5,
0xcffa9a99,
0xdcccfdbc,
0x85b8c1eb,
0x84fea0e3,
0x0b8e818d,
0x968aebcb,
0xc697049c,
0xcb96e301,
0x90cfb6ea,
0x8eae15e9,
0xfcc3e0c9,
0xa9b097f1,
0xb88cf5cc,
0xafc81706,
0x8aa49fbd,
0xf6d9d3e4,
0xe50be0d5,
0x16d6f8e8,
0xacb60c92,
0xb8ab03d6,
0xa493919f,
0xc1cdeabf,
0x0188c09c,
0x0e8cf9f8,
0xfe23ccc2,
0x91bbc7fb,
0xf5a690b8,
0xf3958ee7,
0xf1a4d4fc,
0xd9cd86dd,
0xa4998e8b,
0xc0bcca10,
0xf9b69ef4,
0xd4d4d616,
0xc7fd1306,
0xb1a7b312,
0x06a0f0e1,
0x96c201ee,
0xb8b699b9,
0x139cd6a9,
0xa508c0f6,
0x01a3dc0d,
0x0fddf3a9,
0xf0dcf0a6,
0xa0fef1e8,
0xfbe209f2,
0xe2ecb0ed,
0xeaf1f2a3,
0xabc5e0a3,
0xd2bca3cc,
0xc5d0c80b,
0xb502e1f6,
0xbfaadebe,
0xbd04d00c,
0xe9b900bf,
0xe3cbfec1,
0xe313eac8,
0xfeaf0de2,
0x9e0acdc1,
0xf9fd1492,
0xefa0f1b2,
0xefde98f5,
0xd2c11f89,
0xd7f10ce2,
0x81baa4fc,
0xbbffdc19,
0xcdc2e0dd,
0xfaf1c089,
0xa39e19a4,
0xfea08ca2,
0x20c6abe2,
0x949ecde0,
0x88bb0ef8,
0xa1850806,
0x8fc2c1a2,
0x0bfde1fd,
0xadb08a12,
0xfffcbee7,
0xb2e2ea16,
0xaccef01a,
0x08bb11e3,
0xa2e9e9bf,
0xaba80f0d,
0xfa9584cc,
0xdfd49c8c,
0x81941297,
0x1611af9a,
0x8fe614b3,
0xd2b00ae9,
0x88fc9afe,
0xfbfeabf1,
0x9abb9206,
0xe18cac9c,
0x9d90ec12,
0x07ff970a,
0x05b19c02,
0xee120290,
0x9cf0bfac,
0x0295b7cb,
0xce90a090,
0x8bc0f1bb,
0x880a92ec,
0x0e10ea94,
0xb9f08689,
0x88f2b8e9,
0xe1e8adb6,
0xcff8afc5,
0xf709b4ca,
0x87d0188f,
0xf582f2c8,
0xdba5eb88,
0xc0dfeed0,
0x899ab5e5,
0xc614fcdb,
0x03978b1e,
0xa8c1d0e4,
0xa798abfb,
0xb6a1a0b9,
0xed088f81,
0x15e58a0a,
0xab099ded,
0x02bad48e,
0xebf8a7ff,
0xdd0ac89e,
0xf6d1d491,
0x11f58da3,
0xe10087c4,
0xfdd3e60a,
0xd1ddaf04,
0xab8d9ec0,
0xd7a1a6b0,
0xd2dccb0c,
0x0fdabca1,
0xee9efdb9,
0x84b5ad83,
0x1912110d,
0x96b5bd0d,
0xaabe86fa,
0x0dde81b3,
0x99a1e4e4,
0xacdff4d5,
0x9600151c,
0xfac717a1,
0xd9d9fe10,
0xa2f4a791,
0xe9011804,
0x031bd702,
0x294a4234,
0xda222a5f,
0x4263d716,
0x0b584561,
0xc722152a,
0x2323d513,
0x03381246,
0x0ee5c768,
0x143b23bf,
0xa873ec68,
0x46b0a372,
0x064e0ed5,
0xc943f622,
0xfcedce31,
0xeb203de5,
0x8fefc0dc,
0x639183f5,
0x8dc65c81,
0xb6079ad6,
0x2f98e8dd,
0xcce6f4e0,
0x13f009e6,
0xe2e509a4,
0xd6960eea,
0x05a4bd9d,
0x01d512a5,
0xeaaae5df,
0x130608fd,
0xbb2628ec,
0x2dd8aa30,
0x33d930fd,
0xbc3349d0,
0x16ee963c,
0x2d0e3f2d,
0xd223f944,
0x084ad320,
0xa8db00c9,
0xf1cc97dc,
0x0af9170b,
0xd2ef04c4,
0xbbcadfaa,
0xf704b2b8,
0x9fb19db1,
0xfcc9d399,
0xb098da09,
0xecca9cb4,
0xcfe8acc8,
0xfaa6d98f,
0xbfff01df,
0x0faf13f2,
0xefcdc2f2,
0xa0ee00ff,
0xd000f0c4,
0xca9fc79c,
0xecc5f4ef,
0xe7b1cfec,
0x1ae4dcc1,
0xd916d10c,
0x83b0a207,
0x16abe60e,
0xb2bcc50e,
0xfebef3f0,
0xc604d409,
0x28c617e4,
0x9ae6e200,
0xc41982c0,
0xc399f0af,
0x9b19b6ce,
0x05faa5b2,
0xd029e8de,
0x99e8290f,
0x012a8b2b,
0x1016eebd,
0x81b98ed5,
0xcdc80a8e,
0x9eeaadb2,
0xc9b59597,
0x06898489,
0xe8dbe105,
0xf6e2ba8f,
0xe6f4e1af,
0xf70201e7,
0x93989db8,
0xceab0a18,
0xba0dba02,
0xd5d39a19,
0x97dbc0c4,
0xce97e7e8,
0x9890a6d0,
0xc4b69e16,
0xdbaef302,
0xe5d79e9e,
0x0ee6c3b5,
0xcdfba6ef,
0xded1b194,
0xb093dafd,
0xf0cae0d0,
0xe4ea061b,
0x0e1b0ce3,
0xc197ba0e,
0xdbb0cb12,
0x09a9dd99,
0xdff5f0d1,
0xe7149bc6,
0xabf9fba6,
0x8388cdc7,
0xe80ca8b2,
0xd2bde996,
0xe9b18109,
0x0cedf0c1,
0xc8a8fc90,
0x2615ffff,
0x04000000,
0x40000000,
0x000a0000,
0xba030000,
0x860a0000,
0x62c8ffff,
0x650c0000,
0xd9c9ffff,
0x2dc8ffff,
0x88f2ffff,
0xde0e0000,
0xf1c6ffff,
0x31d4ffff,
0xd1c8ffff,
0xd2cbffff,
0x04f7ffff,
0x04d5ffff,
0x2dc9ffff,
0x7215ffff,
0x04000000,
0x80bb0000,
0x1c1520fc,
0x050f04fe,
0x07eaeaea,
0x08fd0406,
0x262a38ea,
0x2d0feef5,
0xf0eef6eb,
0xee090fec,
0x2e1a6e0d,
0x2bfdf3e3,
0x28ef0c0a,
0xf3e8030c,
0xfbf01900,
0x0a070716,
0x3d040a07,
0x052afa00,
0xe9d409fb,
0x09f6eefb,
0x200cf5f0,
0xef31f301,
0x2a07f4f7,
0x1cf0e9f7,
0xb607e3fe,
0x030d1105,
0x1127f605,
0x0906edc9,
0xbcf1ee0b,
0x10c4fcf1,
0x32386f08,
0x70f30be6,
0x32f4f6ec,
0xeef7ea10,
0x121711fd,
0x22ee04eb,
0x0408ea01,
0xf2040210,
0x361a08eb,
0x07f2f822,
0xeaf2fc02,
0xf037fb08,
0xd6d7a0f3,
0xe405f3e8,
0x81f0ecfd,
0xfcaf00ea,
0xb3e30e03,
0x26f2ecb0,
0xd601eefc,
0x0bb3040d,
0x392e5af2,
0x59e9f5fc,
0x11f20cfd,
0x0c0df2fb,
0xf703c3f2,
0x0200f019,
0xacff0402,
0x10f30405,
0xecfed9fc,
0xfff7f9e6,
0xc30ef101,
0xf6cf0b04,
0xc5bfcdf0,
0xd4080404,
0x19fbfeef,
0xf1fb0dee,
0xff1400f6,
0x120e0a0a,
0x0901fef7,
0xf8ef0502,
0x15f7cefa,
0x31f20ce0,
0xf0ede8fb,
0x09f0fd08,
0xc7dbfefd,
0xd9fa0aff,
0xf80007f9,
0xf0e00e0c,
0xfefb0aec,
0xfcee05f9,
0x2bfff7f1,
0xe8f4070d,
0x290824fb,
0x13fdee0a,
0x1ef20ff6,
0xec25f106,
0x0c011ff8,
0x020afefd,
0x38e9fd0b,
0xfc0feb0d,
0x10f830fc,
0xfeea0f11,
0x4df7f307,
0xef1603fc,
0x21fcf1fd,
0x12fbee12,
0x1707e9f7,
0xeb1f0507,
0x1ded030e,
0x11fa040e,
0x02eef908,
0x0bed0bf8,
0x060720f0,
0x04060107,
0x0ff2fcf5,
0x07eaf20a,
0x1f3933f5,
0x31f0f6ff,
0xeaf2f0f2,
0x04f0fbff,
0x35477fed,
0x470509f0,
0x1ff2eff3,
0x060ceef6,
0x10f4fef1,
0x00fefe03,
0x3e0203f1,
0xf81efbfc,
0xf3e4f5ff,
0xdd00f204,
0x0aef06f5,
0xf6010908,
0xfdf2f106,
0x0beefbf9,
0xdd02f406,
0x0bf0ee06,
0xf509e909,
0x1b08f7de,
0xadf805f5,
0xf4d4f8f7,
0x284324f7,
0x48f1fbcd,
0xc80a08ff,
0xfccc0500,
0x272423f4,
0x16effafc,
0xfe02f9fa,
0x07fdf507,
0x25e8f1fb,
0xe507fb22,
0x03fbedf0,
0x033ffdff,
0xe9eeda00,
0xfcf505ef,
0xd0f8ee06,
0xf9cf0402,
0xe0d6f8f9,
0x09f4f5f6,
0xcd02f1fa,
0x01fdeefa,
0xf705fffb,
0x1cfafcef,
0xe9f9edfc,
0xf5ecf7f5,
0x21101407,
0x2bf1fd06,
0xeef4fcee,
0xee03f604,
0xf0eafe06,
0xf0070208,
0xeff200f1,
0xfde0f404,
0xf2e90df2,
0x06f6fe05,
0x3dfe0df0,
0xf5fc0303,
0xd0d7def8,
0x1cff00f6,
0xff04f2fb,
0x06e7f2ec,
0xd4fb0cef,
0x1cf802fc,
0x0efe02f8,
0xececed08,
0x171724ee,
0x2b04ef00,
0x1ff7ffed,
0x09080705,
0x0ff502ec,
0x0b020afd,
0x3006f507,
0x0002f2f7,
0x290d2405,
0x1d05fdfa,
0x2c08f2f7,
0xfc020809,
0xf0ce09f6,
0xe303f601,
0x2cfeedee,
0xf0e50807,
0x090df5fa,
0x0fecf6e2,
0x2109f505,
0xf2ea04ee,
0x101300ed,
0x27f801e9,
0x1b0006f1,
0x06ebf30a,
0x1b11fdec,
0xf8fef0ee,
0xf1f2fbf3,
0x08ecfff0,
0x06f4d6ff,
0xe6f80ee6,
0xf10f07f7,
0x09050ffb,
0xf7e8fff8,
0xfdfc01f3,
0x080bf7fa,
0xf209fefb,
0x0deacaf7,
0x06eef519,
0xde0cec03,
0xf10c120d,
0x0cffbdf4,
0xe20f0ffa,
0x81070bf2,
0xedcc13f1,
0x1829eef1,
0xe8f9f0ed,
0xae0deff6,
0xf8e3f4fa,
0xf802fff2,
0xe9050bef,
0x02020ef5,
0xf803ebfd,
0xefec1108,
0xf90ffc11,
0x48fb1210,
0x100bedf2,
0xe1daaa04,
0xc700f62e,
0xf2eeebeb,
0xfb0cf0f3,
0xa9c7b10e,
0xa90e0605,
0xc0fbf1f2,
0x0bc7ffed,
0xce0f0f06,
0x001100e8,
0xf9030bfb,
0xf3bbf506,
0xe8e923ec,
0xf703f108,
0x270504fe,
0x0e070907,
0x0e212f13,
0x36ed08f4,
0x4d0b0bf5,
0xfe03fdf7,
0xedf7e8f8,
0xeb0dee0d,
0x3a0a0a10,
0xf9070410,
0xe5da1bed,
0xd1080c07,
0x49ee08f2,
0x09ebf412,
0xfc0a06fe,
0x2aef0110,
0x4306ecf6,
0xfffbeffe,
0x07fd2ff2,
0x00fc0af4,
0x26f70d0f,
0x00020af2,
0x1b0b21fd,
0x1ef308f2,
0x34f00504,
0xf5fa14ef,
0x26032706,
0x0007fe0e,
0x2e10fbff,
0xf716100c,
0x1f0b0c06,
0x29f10a12,
0x320d04f2,
0xef2efffb,
0x17f00007,
0x14f10903,
0x0df2fded,
0xfefe0c03,
0x22180607,
0x1d1301fd,
0xc5070cf5,
0x0c0efa06,
0x171ccf0f,
0x2004050a,
0xb20e0d0e,
0xf008fd0a,
0x0d1cc109,
0x0bef04db,
0xd3f108ed,
0x0be611ed,
0x1910f8f3,
0xf311f6ce,
0xf0f80d02,
0xece0f311,
0x131cfd0c,
0x0110efde,
0xe8f2f90a,
0x10de0af9,
0xf7011d00,
0xf101ecf7,
0x09eeed00,
0x11f20af0,
0xff0cff0c,
0xf513040e,
0xc408fbfc,
0x01f30e0b,
0xee0a4aed,
0x0aef10ed,
0xf6f7eefb,
0xf8c31104,
0xecef31f2,
0x1dfc1216,
0x2e0805fe,
0x0f0f0df7,
0xd6bddffa,
0x0707f017,
0x3d01fff7,
0xee0f09f0,
0x1918faf5,
0x24130a00,
0xe2f50def,
0xf1e9f8eb,
0x1231c6fe,
0x0cf40fe5,
0xa0f1e6eb,
0x0ecdedfc,
0x577f3410,
0x3af0eaeb,
0xcb11f1ec,
0x13dd0204,
0x433c4ffc,
0x310707e4,
0x09fd0b11,
0x021a07eb,
0x1bf52ff9,
0x170d0925,
0x3106f5fc,
0xfc6af4f5,
0xe9fddbef,
0xe81107b4,
0xcefcfe0d,
0x10c8010f,
0xa5b8fc00,
0xcded02b1,
0xef120604,
0xf7bff9f5,
0xe5c4e810,
0xefed0a00,
0xe40c0aea,
0x03e60bea,
0x0d11e1ee,
0x1ff8f0ff,
0xc212fd08,
0x13faf7fc,
0x332e1bff,
0x1d100b05,
0xd8f9ef12,
0x00eeec12,
0xf8310deb,
0xecfa11ef,
0x19f8f604,
0xf413edf8,
0x393838fd,
0x0cf9f81b,
0x360203fe,
0x0e100a0b,
0xfaebd001,
0xe20c0b0d,
0x440ce90c,
0xec11f1ec,
0xe1e7e811,
0xe6ffec08,
0xfaf6f0fc,
0xedecf3e9,
0x00030cfe,
0x22f20cf5,
0x190e0ffd,
0x0dcc10f8,
0x1cfa0814,
0xf9ff1222,
0xf310fd06,
0x001f03f2,
0x0405120e,
0xf1fd0aea,
0x1c0e0602,
0x0526ed09,
0xe6f1f6f4,
0xe3f1eb0b,
0x3900f304,
0x072103fe,
0xf8ca13f1,
0x0213f0f4,
0x19f40900,
0xf40cf4f8,
0x04f2f5f6,
0xfd0bfcf3,
0x03ed01f7,
0xfa0203ee,
0xfd0761e9,
0x150cfc09,
0x66e803ee,
0xe500fc04,
0x15df25f1,
0x1cf10d2b,
0x7ff4f905,
0xe737f20f,
0xf6daa5fd,
0xddf1f72f,
0x1408f701,
0xfa0efd01,
0xf7f32bed,
0x15f306f3,
0x0af8f507,
0x00effaf6,
0x091015e3,
0x220de208,
0x30f30705,
0xf3f508e6,
0x48535bf3,
0x4f00e7e9,
0x4204f3fd,
0xf326f409,
0x2309240d,
0x2a04ec1d,
0x3bef08f5,
0x082becf1,
0xad86fdf4,
0xbde6e310,
0x30edf4f8,
0xf3190f00,
0xfb1315fe,
0x43ffe31b,
0x37f40de3,
0xe9ee060b,
0x222bf3ec,
0x12f8eaea,
0x07e4ffe5,
0xedd3f7fe,
0x0f151707,
0x1bebeceb,
0xeee404f8,
0xe9fae9fb,
0x2824f4f1,
0x0f00e422,
0x020beff4,
0xe7d9040c,
0xf90b0fec,
0x010108f4,
0x31f903f4,
0xe80cf8f2,
0x2c0438e5,
0x52fc02f3,
0x5c0603e7,
0x020feb02,
0x01dfdcf1,
0xf20503eb,
0x31f3ecf4,
0xf2e1eef2,
0xf0051803,
0x0702f2ee,
0xeeefefed,
0xedebf1f6,
0x02fe0dfe,
0x18f2f61f,
0xd8f5f106,
0x0e0aeaf3,
0x1221fb02,
0xf9e5f0ff,
0xfceef9f7,
0x0503f0f8,
0x390326ea,
0x4c0ef4f0,
0xfaffe6fc,
0xe6f40df8,
0xf4cac6f4,
0xd0f0eaf2,
0xcbf8e9f7,
0x0a26ea05,
0xd9f9e2e8,
0xeafc01e2,
0xf6e3ed03,
0x0ac60607,
0xfb242ae6,
0x290809f6,
0x1c050e0b,
0xf8f3ef0a,
0x26411ee3,
0x25ffef01,
0x1aeef8e5,
0xf32801ee,
0x020edcfe,
0x0cfae330,
0xf5f9e7f8,
0xf438e40f,
0xdce9d5f6,
0xf4edfd0d,
0xc6ea0cef,
0x01090208,
0x04110fff,
0x0ef111fa,
0x04f7efeb,
0xfff30303,
0x2e24170c,
0x241004f4,
0xc604ea10,
0xf7e007f7,
0x01350205,
0xf90b0d15,
0xc30ff6f6,
0x0bfcf2fe,
0x15fafef5,
0xe102ee01,
0xd2f9fd13,
0x09ce140d,
0xfcf410f2,
0x070d060e,
0xf90f04eb,
0xf7fd00ec,
0xe2d5e2fc,
0x0beefff0,
0xf40b130a,
0x11dc0907,
0xfaebc5f0,
0x001304eb,
0xa8130406,
0x00cf05f0,
0xec0bd1ed,
0xee0aece6,
0x81faf50a,
0xf4d8ecec,
0x18150602,
0xf305ebe3,
0xcffc01ee,
0xf9f005eb,
0xf6f6eef2,
0xf9f1faf2,
0xfd060ff5,
0x050d0ff5,
0xd0e4180d,
0x2df0f7f1,
0x07ecf4ec,
0x0af2f5fe,
0xdff4e2fe,
0x17f9fc11,
0xedf8ed11,
0xf4040210,
0xdac2e904,
0xf113f0ea,
0xf3030a06,
0x10e40109,
0xe40d34fe,
0xf405eaf6,
0x340913f2,
0x07f8f200,
0xecdd0df1,
0x13ff11da,
0x1e020bf6,
0x14fb0c0c,
0x14061cf2,
0x4712ff20,
0x46fc0cf7,
0x141a140b,
0xd38cbb11,
0xfdec0ef1,
0xd30802f5,
0x05d60604,
0xf0241906,
0x01f00709,
0x1ff215f9,
0x09f90707,
0x43553301,
0x35fe00ea,
0x45f316f1,
0xf62c06f7,
0x3e321bfb,
0x470e07e6,
0x4610ffed,
0x0a090916,
0x11eeefef,
0x200204f5,
0x0afbfcf2,
0x0dc50cf2,
0xb49fafee,
0xcafb08f5,
0x08f70415,
0xf3d000ec,
0xdfecc506,
0xfbefeecb,
0x0613f60d,
0x06b2ecf8,
0x25301cf2,
0x2e15f5b6,
0x00f6f712,
0xffb9eb06,
0x3743ee00,
0x18110ed2,
0x17f0f409,
0x13d307f7,
0xfe042ffb,
0x1a060a10,
0x41fb08f9,
0x020ff801,
0x0bfed5f9,
0x06f30019,
0x27f50a09,
0xf32ef2fe,
0xdab881f9,
0xbbfa0600,
0xea01f5f7,
0xf0eb0bf0,
0xebea41f8,
0x15fbf8e1,
0x1ffbfa0a,
0x08ecfb03,
0x1107150a,
0x2f0008fb,
0x2d0a0902,
0x0c22f0f0,
0x312cfefb,
0x15f6f3ff,
0xe1fd0101,
0x0000f80b,
0xf5cdfaf9,
0xe70b01f5,
0x0bfdf6fe,
0xf1f1faf8,
0xbcd23cf6,
0xc0f00129,
0x630bf20c,
0x08210604,
0x1f191b02,
0x1bf2f62f,
0x3afe01fa,
0x0a32fcf7,
0x0a1107f6,
0x13f3f305,
0xef0af509,
0xf7f206fe,
0xdfcfd70c,
0xee0901e0,
0xe2faf4fb,
0x02cb0d05,
0xf60033f3,
0xef03fad8,
0x3ff1f3f2,
0x00ddfff2,
0x3814330b,
0x3d09f70d,
0x45f90a09,
0xf926feff,
0x0efae0f1,
0x1f0509ff,
0x0ffdf7ff,
0xf203f202,
0x1c2707f1,
0x0908f9fe,
0xf2fe05fa,
0x01f109fa,
0xeb0ef9f9,
0xdbf4fde3,
0x01f60908,
0xf8ebfcff,
0x3263670a,
0x0bf20204,
0x3b0cf0fa,
0xf31bf2f7,
0x41efee06,
0x0b0b011c,
0x1afcf7fe,
0x012d0007,
0xd8dae30a,
0xe60308ea,
0xe506fa06,
0x03de060c,
0xf10fe2f3,
0xed08fee8,
0xdcf9fdf2,
0xf9d1f7f6,
0xe7fbf307,
0xd8fd0c0c,
0xdbfff5f3,
0xfa0afef3,
0x2960170b,
0x21060103,
0xc8f70107,
0x012b0cf8,
0x2b0b06f3,
0x0702061f,
0xf4f6f8f6,
0x083efd02,
0x05f6cf06,
0xdc070a21,
0xe9f7f800,
0xf13d0bfc,
0xf2fbe8fe,
0xe304fdf8,
0xedf10403,
0x07f8f006,
0x0e0e2a07,
0x16fe0e00,
0x390900ff,
0xff1905f0,
0x18ff14ee,
0x2604021f,
0x46fef00b,
0x0225eef8,
0xfedabafb,
0xf5fff81f,
0x0af109eb,
0xea1eff00,
0x00180607,
0x20fdeee8,
0xf2fcf5ee,
0x052108ff,
0x0e06f203,
0x07ef00f8,
0x09f5fff7,
0xfe01e7f0,
0xfbff0eeb,
0x11f50c01,
0x1908ede8,
0xeaed0b01,
0xe1d11aed,
0x100d0f12,
0x63050fff,
0x0725edf7,
0xa183d8f3,
0xb3f20913,
0x5e0dfd04,
0x0d2cf8f4,
0xd6cef9ea,
0x0dea0608,
0x2aebf105,
0xe911f7f3,
0xd0d4e4e9,
0xf60bfc05,
0xe60800fe,
0xf8c2f7ef,
0x212c140e,
0xf6f80a0b,
0x1f01edfe,
0xfd12f8f0,
0x23440304,
0x1bf2f622,
0x3afb0509,
0xf4121003,
0x07ff0fec,
0x09f30ff0,
0x51f3f3f3,
0x0e260ff6,
0x120633eb,
0x3deef6f0,
0x7ff013f9,
0xeb14f702,
0x0ef8d9f1,
0x06f1f237,
0x2bf9020a,
0x0835fcfe,
0xe4ed0ff4,
0xdff1fcf2,
0xeee8ede9,
0x0f00efeb,
0xfde42d0e,
0xeaf2fdfa,
0x17eb01fd,
0x08fafa07,
0xf3e13b02,
0x0a05090f,
0x17ecedf2,
0x0ef3fbe8,
0x3b00150a,
0x41faed01,
0x03fc0101,
0x050ee9f3,
0x07f5b201,
0xcd000d12,
0xe40201fa,
0xee06fbf2,
0x0311e3fc,
0xecf700ec,
0xe2fff4fb,
0x04f00df3,
0x404a0b0d,
0x22eff129,
0xd909e906,
0x022c02e7,
0x6a6b12ea,
0x35ebf225,
0xede9f3ec,
0xf32afaec,
0x1f13eafd,
0xfefafb20,
0xc7040501,
0xfa10f4ff,
0xe0dbddfe,
0xd1e7000a,
0xdd04e70a,
0xfe020c09,
0x25fd08f7,
0x0d1b200a,
0xe7f81b10,
0x2328fb22,
0x0705c30f,
0xe40709f6,
0xb31a1806,
0x0be6240a,
0x03ecc917,
0xd91319f0,
0xad0a1efe,
0x13b9f715,
0x0e14ae1c,
0xe1210cf9,
0x821d0afd,
0x05bd100c,
0x012ef9fc,
0xff23f80c,
0xe3141019,
0x22f814fc,
0x17f6aa1e,
0x0606feef,
0x9e02fb1b,
0x10f2fc00,
0x090dc71a,
0xce010501,
0x8e23fdfb,
0x18c71710,
0x467f2e05,
0x0ff803ed,
0xd417f610,
0xf8e9ff02,
0x061fd31a,
0xa2161b05,
0xc60a16f8,
0x180a0f0f,
0xfc1d1efe,
0xf00615f1,
0x02f7f807,
0x1ff01219,
0xede2dbf8,
0xd302f700,
0xd2020612,
0x0a13faf4,
0xb6bd8aff,
0xa5ff1ef3,
0x9f1117fe,
0x0b1bf9ff,
0xefeceaf9,
0xd900f7e5,
0xa917fef8,
0xfedbf71a,
0xec070cf9,
0xb61a2203,
0xce0a07ff,
0x03f6121a,
0x0f0d4403,
0xfff71c0a,
0x08f71ffd,
0x10041a1e,
0xfaf4c0fa,
0xe5150d21,
0xe01d0a10,
0x010c01fc,
0xc2c406fa,
0xce1302ef,
0x150bf7f8,
0x0cd01221,
0xfc0b351c,
0xdb131108,
0x3604060f,
0x073b0cfd,
0x012aeb01,
0xf80e0f1b,
0x180108ff,
0x030b0702,
0x0c39131c,
0x261d17e4,
0x14230115,
0xfdf121fa,
0x05fb0100,
0x0d1a091d,
0x30ff1f05,
0xfa03101b,
0x06fffb20,
0x01021219,
0x1c221e22,
0x1a00020b,
0xcbbbfc0c,
0x05081019,
0x1816121e,
0x09080022,
0xe3eb0913,
0xdc1f15f7,
0x1afd0604,
0x1efd1822,
0xe50f0c0d,
0x1221fc05,
0x1afc06fc,
0xfee01a0a,
0x1b000b11,
0x18fcf716,
0xfa0d0c0b,
0x0908f813,
0xff04f204,
0x01f50913,
0x02ff0f0a,
0xfb131100,
0xf6ee10f8,
0xf8f90802,
0x1a16fffb,
0xfd080d05,
0xebecf3f9,
0x0c040301,
0x1efe1204,
0xfa2111f9,
0xfff9defc,
0x0bfaf301,
0xfef40afb,
0xfb29070c,
0xf5f5cb09,
0xf8f60a12,
0xc8100213,
0xff111214,
0xe2ddff09,
0xd20cf8e6,
0xfa0d07f7,
0x0af9fff7,
0x1b087710,
0x29050c04,
0x7f101312,
0x09320110,
0x10dfdc0d,
0xf3ff0f26,
0x25f9f205,
0x014ff5f4,
0xd9caeb00,
0xee0ffe1e,
0xce0c0300,
0x120e1010,
0xedebbc10,
0xe2051410,
0xc1030f04,
0x01e910f3,
0xe9fb1102,
0xfa0a0dd1,
0x10f51013,
0x0af212fe,
0x4a5b3a12,
0x4a000705,
0x1b0d0a16,
0x00280b02,
0xf7f3c40c,
0xe4120b10,
0xd4051201,
0x050cf607,
0x0bfc03f8,
0xf0130226,
0xe4fd11fa,
0x020cf503,
0xd5d7c312,
0xbf0dffeb,
0xe6f2ff03,
0xfae10005,
0xff281914,
0xd9f8f6e1,
0x0bf30cff,
0x00f9f9f8,
0x0ff20ff7,
0x1b04fc02,
0xd20501fc,
0x0af312fc,
0xd4cce50b,
0xd8101501,
0xdb130212,
0x05dc0e0d,
0x040d0300,
0xee0b02f4,
0xe4f40b13,
0xfafdf70c,
0xe6df19ff,
0xd5f71532,
0x1111f805,
0xf934fff3,
0x132d0911,
0x13f60122,
0xe5130105,
0x07220a0c,
0x14041401,
0x0803022e,
0xe2000808,
0x13131504,
0x0607f315,
0xf9040c16,
0xea0d08fc,
0x124414f4,
0xebfa100d,
0xe505040b,
0xf30e0d15,
0x03f8f401,
0xfbd80aff,
0xf5fbef06,
0x1a04f005,
0xedf7eeeb,
0xf0070e0d,
0x0cf80c04,
0x4df5f7fa,
0x001f0108,
0xf2d62ff0,
0xffee07f8,
0x40f010f8,
0xf00aed03,
0xee083603,
0x07020afe,
0x5bed0bef,
0xfd1e0b02,
0xf8131304,
0x21010c14,
0x3bf90d0c,
0x0e0500fb,
0x1513160e,
0xfb05071e,
0x3af113eb,
0xfe27fe03,
0x310a43ed,
0x27faf6eb,
0x5504eaf5,
0xfc1cf100,
0x01c019fe,
0x14f80510,
0x6802fffa,
0x0f0c04fd,
0x1ee702f9,
0x3df3ed02,
0x32110209,
0xf90703fd,
0x0d29f9fb,
0x250beffd,
0xe4fdf8ff,
0x0e0f000c,
0x181b04fd,
0xfd09ff1e,
0xe7f9eb06,
0xebfc04f5,
0x2949150d,
0x30ed0afa,
0x0ceaeaff,
0x130b10ee,
0x3e4c2dfe,
0x1e12f207,
0x170f0809,
0xf61bfbe9,
0x2dfbceef,
0x0b0c0204,
0xe10a0d0b,
0xfe1c02f1,
0xf2e9cfef,
0xd0ebf505,
0xc3f00901,
0xfce101f2,
0xfee4cc04,
0xf10a0513,
0xda03ebe8,
0xf5f2100c,
0x1f2cc6fd,
0xf3f30c00,
0xb3fb040c,
0x0201070d,
0xfef9e404,
0xe9f908d1,
0x81f8ed07,
0xf1d9ff10,
0xebc6defe,
0xf4f2ebf6,
0xc50efaf7,
0x11fb0b08,
0xc9d3e201,
0xccee0004,
0xbcf3f9ec,
0x110be80c,
0xedd61cf1,
0xe3ee09ee,
0x1cff0ff1,
0xfafcf407,
0xf40d390d,
0xfbecf5ff,
0x2410fdfd,
0x0c16ede7,
0x10fa36ee,
0x050ef31e,
0x16eb0b06,
0xf00eebfc,
0xcee8fdfc,
0xedf50b3e,
0xf30f08f8,
0x013af8f5,
0xebdc06fd,
0xe40e052b,
0xf0e9f0ea,
0x0d3be709,
0x0203ff0c,
0x011102f9,
0x0701feff,
0xf90609fa,
0xe5c6d907,
0xde0b0413,
0x0e0e090d,
0x0726f7f7,
0xc8b981fd,
0xb2fd0110,
0xd8fdf6fa,
0x10f400f9,
0xf9140e05,
0xfd0a14e9,
0xe9000f0a,
0x01da0e01,
0x1a332704,
0x220800f2,
0x080501fc,
0x01f9f7fd,
0x0f08f908,
0x020812fd,
0x110d0b05,
0x141304fd,
0x03022a0d,
0xf20d1210,
0x4a07040e,
0x06370700,
0xc7d0e800,
0xa2f80628,
0x3611fbff,
0x03300614,
0xf2e8ca0e,
0xe10c071a,
0xf905f8fa,
0xf7fc0608,
0x04350b00,
0x24fa0ae4,
0xe0fdfe14,
0x0ab20613,
0xfcf2f605,
0xec000210,
0x05fd1406,
0x071611f9,
0x1225f50c,
0xfa050dfd,
0xf914110e,
0x0ef6140e,
0x1504110b,
0xf01007fc,
0x0406140b,
0x100f130c,
0xd8e7edf7,
0xca0cff0c,
0x050809fe,
0x0c081410,
0x0514fef8,
0xe40602f2,
0x11fbfbfc,
0xf909fbfd,
0xffeee50c,
0xec0f08f6,
0xda02100e,
0xf7e6fe02,
0x0b331d14,
0x01fafd0b,
0xff0efcfe,
0x0c050008,
0x2c25f712,
0xfb0ffd16,
0xee0f0714,
0x0021030a,
0xf5efd703,
0xc80e1202,
0xe30c0e12,
0x0de403f8,
0x02f9e502,
0xf3080ce8,
0xe8f9f6fb,
0x05f5fa04,
0xf4e9ee0b,
0xf1030206,
0xf9fa0a0d,
0x02ec090b,
0x072af8fa,
0x04141011,
0xe90ff90a,
0x07171108,
0xefdcfc10,
0xfb13131b,
0xeefa040d,
0xf8130808,
0xd9efe70f,
0xeaf90c2c,
0xf90aff0d,
0x072413ff,
0xe6fc1006,
0x01070009,
0xf6fa0213,
0x0a1b0b00,
0x060602f1,
0x0e13f107,
0x13fd0eef,
0x0b1e05f7,
0xf8dfccf2,
0xf4faed07,
0xe511eff3,
0x0922f4f1,
0xe0cf8113,
0xa60e09f5,
0xc1f70a00,
0xfedef413,
0xf5235413,
0x2c12f7d9,
0x0b02f6f0,
0x04cefa05,
0x1c1d5e00,
0x2c09f5f5,
0x5fff0212,
0xfd110e0d,
0xe0ded6f5,
0xf60cfadb,
0x02f4f7f9,
0xffda0bf4,
0xead608f4,
0x01f6130d,
0x06100b02,
0x0018fc0f,
0xe108cc04,
0xc806f624,
0xcbee12ed,
0x0610fa01,
0x2036000c,
0x1114fe14,
0x010cfe01,
0xf7e51100,
0x413f0303,
0x40f703cf,
0xe3f3fe05,
0xf8b30504,
0xf5f72e06,
0xfe0ef31f,
0x20fbfdfd,
0x0a2c020c,
0x4735b002,
0x1014104b,
0xb5fe00f0,
0x134afcf9,
0xb6b5a50b,
0xbd1002cf,
0x96f2eefd,
0xf4cb100b,
0xeafe22ff,
0x0801f6e3,
0x24fffb0e,
0x11f60ef4,
0xe70100f0,
0xedf1f6e7,
0x26150d13,
0x01f7fcff,
0x1ef6090b,
0x40f40305,
0x1613f80e,
0xf41a1509,
0xa58ba50c,
0xcdfbfafe,
0xdc00ffff,
0xfed011f0,
0xe31f2108,
0xc70d03fc,
0x261104fa,
0xfb0514f9,
0x404c130e,
0x33f202f8,
0x10f2f712,
0xf1220afb,
0x0bf0e5f0,
0x03071407,
0xed04fe00,
0x0d1bf6fd,
0x160e0a07,
0x1cfc0ced,
0xfeee0105,
0x12c6ee0a,
0xfe0625fc,
0xf6040311,
0x2b040308,
0x14140cf4,
0x18100d0a,
0x20f1f41a,
0x1bf111f6,
0xf50d0fee,
0xe6e4f606,
0xe806051d,
0xd0f009fc,
0x00ed10ff,
0xdcfc09ef,
0xf308f10d,
0xf00a0df1,
0x1415f1f8,
0x17052010,
0x1f04071f,
0x05100110,
0x040df507,
0xddf9c8fc,
0xe30e080c,
0xfd160cf6,
0x14f11308,
0xd0db811f,
0xa9f511f5,
0xeb1c10fb,
0x04d41f04,
0xf8f52405,
0x161df4fd,
0x43001f09,
0x0ceff5f7,
0xf9ff0301,
0x0b1117f8,
0xff200403,
0x0f241a03,
0xe4d104fa,
0xfc2116f1,
0x1d031519,
0x1dd70920,
0x030ae318,
0xff04fc0f,
0xe90d1a08,
0x200a00f8,
0xca25f6fe,
0xb81502fa,
0xb514f709,
0x09faf8f4,
0x162654fc,
0x20050514,
0x4aff1c13,
0x03230efa,
0xe9dfd709,
0xeb110116,
0x15010117,
0x21ed1efd,
0x012b481a,
0x1c141d28,
0x5a2112fd,
0x1c351117,
0xffa3ad1e,
0xbd160309,
0xe90900f8,
0x1127191e,
0x90a3130d,
0xa615f8fd,
0xf8041710,
0x07be08fb,
0x16333cfe,
0x5c200111,
0x47201000,
0x07351513,
0x2205ff00,
0xe6091f1b,
0x06fc18f9,
0xf63cf6fe,
0x1e3ecc1b,
0x17071012,
0xbd1b1212,
0x0cf81a1f,
0x0afbe8f1,
0xcffa0e23,
0xcaf5fe0e,
0x0ce91212,
0x53674f21,
0x14180048,
0xc3f3fafa,
0xf363fc0c,
0x4e1afaf5,
0xf6fd0a03,
0xae102008,
0xf5ff0bfc,
0x134bf820,
0x180afafa,
0xe21600f8,
0x01cf0f0c,
0xbbb9ce1d,
0xe70ef9f2,
0xebfe160c,
0x0ff1f40b,
0xd5ffa8f3,
0xab01fbfa,
0xb90bfdf4,
0x0cfe02fc,
0xa999d712,
0xd21c0ae9,
0xae1c1313,
0x19b3101d,
0xa5bb051e,
0xd11f12df,
0xd209f915,
0x03e605f8,
0xe6040109,
0x141c1ee3,
0xf6fb051f,
0x19e9fdfb,
0xf5ecff02,
0xf110fefc,
0xfa0b0501,
0x0f1807fb,
0xe2cdc5fe,
0xef13fa16,
0x02070b0c,
0x022001fb,
0xe3d9810f,
0xca0afa12,
0xde11fc09,
0x0fe61100,
0x061cda08,
0xf50505f8,
0xb210fafe,
0x0ec40bf9,
0x17383408,
0x25090cf3,
0xe8f90507,
0xf9e90a0e,
0x050bfc0a,
0xf6070ef3,
0xf9ff050d,
0xfb100007,
0x05fc0913,
0xe811fb19,
0x21070c12,
0x01180cff,
0xe3e1e00b,
0xaf090e21,
0x0a10fe04,
0x0936fafd,
0xcdf0d5fd,
0xd10efb17,
0xd90aff11,
0x0ce70511,
0x03211105,
0x1a1212e1,
0xef0b080d,
0xfcb10a0e,
0x01f217fb,
0x03fd0121,
0x0d0c0f07,
0x0714f9f9,
0x170cd1f9,
0xf6030f17,
0xdc021001,
0x1002070c,
0x00e7e012,
0xd30f0f01,
0xe5110d0c,
0x10e710fc,
0xe3e013fe,
0xc70903f1,
0x0e040b10,
0xfef709f8,
0x0a141f04,
0x01fc09f0,
0x1cfc0113,
0x0a190bfb,
0xf4f5f901,
0x0510fcec,
0xe7100d00,
0x0e0a0811,
0xd8e5fd06,
0xe210f9f9,
0x0e04040c,
0x08fc0609,
0xee080807,
0xd50c090e,
0x1a06fe01,
0x0b100212,
0xff02f904,
0xe7f9120f,
0x010c0b02,
0x080e000d,
0x0e03fb08,
0x0107fd09,
0xeffdf810,
0x0209fcff,
0xf4f7fb0f,
0xf50ffd0a,
0xf8120e0d,
0x06fdff04,
0x1919fcfc,
0x15020d1f,
0xe90e12f9,
0xfc1807ff,
0x02f40f0b,
0xfb030e0c,
0xf6060f10,
0xff0a1206,
0xf8f3e8fc,
0xf0fefd0d,
0xe9070df9,
0x09120bfc,
0xee04fffe,
0x0a0413fd,
0x020e0c06,
0xfb0a0c12,
0x0aed27fe,
0xfe14fafc,
0x1714080b,
0x05dfff06,
0x00fd02fc,
0x010910f6,
0x2909f310,
0xfcc4fd00,
0xf11d2e13,
0x0911ee0c,
0x02f0eff2,
0xf2f6f70c,
0xcbf9a5f5,
0xc0fd0f0e,
0x88f1f7fd,
0x10d3f708,
0xd8e7bfff,
0xc5ef14ee,
0xb2ee020f,
0x14cd120a,
0x2c1d2bf3,
0x1af2f624,
0x50f813f5,
0x100f0508,
0x464cd1f3,
0x10fdf324,
0xc1fe11ef,
0x0eed11ff,
0x427f02f5,
0x1107f6e3,
0xb207faef,
0x15d70713,
0x00162aee,
0x0112fddd,
0xeb0cf6f6,
0xeef20909,
0xdbab1503,
0xe7f80619,
0x6a0d0ff8,
0x0748120a,
0x2a5726fd,
0x240c01e6,
0x241203f2,
0x1018f20d,
0xca9cba15,
0x86f9eeec,
0xfd07f80c,
0xff0811ff,
0xa7d4d002,
0xc5f311d7,
0xd2f00711,
0x0bcc0212,
0x414d1ff5,
0x29110ae2,
0x14080802,
0xfa11f4f9,
0x392124f1,
0x3d01f916,
0x16f6110f,
0xf748eff7,
0x24610d0b,
0x0907eee0,
0xe9050f10,
0xf5f60b0c,
0x23001cfd,
0xf4fe051f,
0x33f20905,
0x1039fd0c,
0xe6f7fb12,
0xc1000a25,
0x3cf30bf0,
0xf41af6fe,
0x1a03140b,
0x0e091020,
0xfb05ef05,
0xfe13070f,
0xff0c1a08,
0x090807fa,
0xf0fa0cf1,
0x15f7f2f3,
0xd9e4ecfc,
0x09fe11fc,
0xf2fd02f1,
0x0f0308fb,
0xfdf8080e,
0x080af3fa,
0x1104ff0d,
0x16fffc02,
0xe1cd1500,
0xf5ffeff1,
0x100dfe14,
0xefeb12f2,
0xc0aafe0f,
0x0a0f0afe,
0x1110f1f9,
0x01edf308,
0xdc071308,
0xfa01f9fb,
0x20ff0602,
0x11e112f1,
0xebf0e606,
0xe604e8df,
0xfd0cf5ec,
0x090909ff,
0x04150fe9,
0x12fdfbee,
0x0108f4ed,
0x10e6f0ee,
0x2b331503,
0x15f6f910,
0xdbf8eeff,
0x0af0ffff,
0x2d3332ee,
0x2407ea12,
0xf400fe08,
0xfc09fe04,
0x1bf01e04,
0x0805f70b,
0x2f0604f1,
0x0ff6f4fe,
0xfbf8fa08,
0xe1f6f704,
0x07efe909,
0xf7e6f0f1,
0xf00bee00,
0xf805fd0d,
0xe90ee8f4,
0x0ffbef0e,
0xeefb8e0f,
0xdd0df0f9,
0x88f905ec,
0xebd406f5,
0x00311300,
0x0bf40cc9,
0x9bf3fcf4,
0x0fc40dea,
0x12091f09,
0x23e9f8f2,
0x0f020403,
0xeb1c0cfc,
0xfff318fb,
0xff03f3f3,
0x2b07080c,
0x0be6ff03,
0x05f30cfc,
0x2405f609,
0xe8f20fef,
0xf4f6ef06,
0xbd9ca006,
0xaffb02f3,
0xdb0b0ef8,
0xee01fef8,
0xf0f9eeee,
0xe5f1040a,
0xeef71108,
0xf1e2f8f0,
0x0a1a1ffd,
0x12f707eb,
0xedea10f5,
0xf1d9f512,
0xf20d4e09,
0x22f5ed0a,
0x7fee0bea,
0xf9100302,
0xdab8f8f1,
0xff0a0901,
0x3a1111f7,
0xf7daf6fa,
0xc8cbf308,
0xd3f5e81f,
0x6efaee0c,
0x0ce5fafc,
0xfc1316f5,
0x13f3ef0f,
0x3b0b0fee,
0x0904ffeb,
0x0f0f2ef8,
0x0ffb1102,
0x4d07fded,
0x00e7ebf3,
0x46574108,
0x4110f726,
0x10ee0bfb,
0x014309f0,
0x3d132aeb,
0x1d00f714,
0x33fcf8f4,
0xfc2eff10,
0x1c34e6fe,
0x0b0ae808,
0x380b09fb,
0x0a15ffef,
0x302bfff3,
0x23f803ef,
0x30e9f6e9,
0x09e4eafd,
0x363c0df8,
0x260efef9,
0x06fdfced,
0x01e9fdf0,
0xf1ee010a,
0xf900fadc,
0xe8eefff0,
0x0df000ef,
0xf705f2f3,
0xf4f90ded,
0xdcfa02fe,
0x0418edf3,
0x24100bf8,
0x1eeceef5,
0xc9ebe90e,
0x0cdd0304,
0x1622fff3,
0x1bf904ec,
0xe9080feb,
0xf7d20deb,
0x22083509,
0xfb0c0fe1,
0x3eecedfc,
0xf9cf01f0,
0x0b2e02f6,
0xecf2e9f8,
0x00fef7fa,
0xf20df4fd,
0x17062fef,
0xea0a0bfc,
0x050b0103,
0xec11e8f6,
0x1019d402,
0x030402fa,
0xbef7ef04,
0x0309f404,
0x1b24daf9,
0xfffffcf7,
0x92f101ee,
0x04c80608,
0x2d553701,
0x3de90cd2,
0x17fbefea,
0x02de0d04,
0xebe6ec04,
0xf8ee0b03,
0xe2fa0f05,
0x0cfeeef8,
0x2012dd0c,
0x280afd15,
0xe0f7fc06,
0xee0a0105,
0xecd081e7,
0xd1fc0beb,
0x9be7f3ef,
0xfaf3eb04,
0xc8d2db05,
0xb3f705ed,
0xb2e704f8,
0x09b90203,
0xed090805,
0xff0d05be,
0xfb09edec,
0xf8c7ff09,
0x08194d02,
0x2ef6ef02,
0x59f4faeb,
0xee2507eb,
0xd1c9e701,
0x1cf501f7,
0x220af8ea,
0xed05fcf8,
0xab99c4ee,
0xbef301e6,
0x4809f0f8,
0x09f2ecf7,
0xdbf01e03,
0xef00faf3,
0x36f2ecf0,
0xf429f1ee,
0xf1ce15eb,
0x05e9f20f,
0x1bfd0cea,
0xf92bfef0,
0x43532904,
0x4feb04ff,
0xf202eb02,
0xeee2f810,
0x25034001,
0x27f306ed,
0x520ff9fb,
0x00e90afa,
0x0d021ff3,
0x12fa0e1c,
0x5f00eef7,
0x0d0e0dea,
0x110df4fd,
0x1cfeec01,
0x1ef406f8,
0xf91602ec,
0x290afdf1,
0x1306ed03,
0x0afdfdfe,
0x090cebed,
0xf00c440c,
0x08f7e308,
0x3f0e0b10,
0xe52cf6ee,
0xfcfd1208,
0xf80ef127,
0x29f11106,
0xfa37fc03,
0xe1f7dd0d,
0xdcfffaf9,
0x1bfe0cf6,
0x12050908,
0x161873ec,
0x45f7e5f0,
0x710df204,
0x0c01f60b,
0x11053309,
0x37ff12fb,
0x71ebfbf6,
0x02250303,
0x1f1ef6f0,
0x270aeafa,
0xfafb0102,
0xe5f7ebeb,
0xe0ec12f3,
0x20fb0e05,
0xfc13f605,
0x03f11000,
0xe2de04ef,
0xe8f705fe,
0x20e80105,
0x02f8e4eb,
0x35320df9,
0x5b08e7f6,
0x2cfbe6f2,
0xec0402e4,
0x5441fff2,
0x1a0e0bda,
0xe102fb0f,
0xeecafcf9,
0xf8f1fff9,
0xed080b27,
0x0b08eb08,
0xfaf208f9,
0x2d2af6ff,
0x29f4f65a,
0xceedf3fd,
0xfe14e9e6,
0xfce9dfe9,
0xfaea0006,
0xd205fd10,
0xfbf8e602,
0xe90d1a0d,
0x2207fff8,
0x0bfc0fe2,
0x07f411fc,
0xeee8ec05,
0xd7fde7cb,
0x15eaeb0e,
0xedbdfdf0,
0x0405e5e7,
0x2dede206,
0xd60e070b,
0x110e0ffc,
0xa3af8103,
0xfde5ef05,
0x88e8feed,
0xe7b7ecfe,
0x042e02e7,
0x0ffee2f1,
0xcaf9efe7,
0x11e107f7,
0x322025fc,
0x440ff6f9,
0xfffbe9ed,
0xe815f7f7,
0x18ead4f9,
0xf2050e1e,
0xc8edefea,
0x0812fa0a,
0xf7ee1006,
0x0cf505d5,
0x24f5f3f4,
0x0ebe04f4,
0xd0e311fe,
0xd5f20507,
0x49f2fb0e,
0xebf9fffe,
0x08f73212,
0x34f1ef0f,
0x37eb07e8,
0xf224e90b,
0x00e5f907,
0x05f1f639,
0xe2fb080d,
0xf60be7ef,
0xedf6d50d,
0xcdee020e,
0xc7eaf80e,
0xfa24eafb,
0x341120f1,
0x0b041205,
0x011316f6,
0x0a0c0614,
0x133f1cf3,
0x1c04f111,
0xd917f2fe,
0x16d2f017,
0x0f364f00,
0x01fc1401,
0xf70ffc12,
0xf6ed0b05,
0xfeebe0ee,
0xe20cf6ff,
0xfd04eefa,
0x07ff0205,
0xd4d0db13,
0xdbf80708,
0xc907ef0f,
0xfdfd1509,
0x14dce800,
0x18000eef,
0xd20f0713,
0xffd808ff,
0x0d29a8f6,
0x14fc0206,
0x81fb09ef,
0x14cd0a0b,
0x3b602918,
0x43f9f7b6,
0xb2fb0f16,
0x12c10af8,
0x100e20fc,
0x0702f40b,
0x110cff00,
0xf7300df9,
0xd5b6d30c,
0xe3fbf338,
0x13f7f40f,
0x04420104,
0xf005fdf6,
0xff0eef10,
0xf70b0b18,
0x15fc040b,
0xc7b3bbfb,
0xca13fef6,
0xc8f4f3ff,
0x0000faf9,
0xccf81df0,
0x0b080dfb,
0xd9fc050e,
0x09c40012,
0x2a283d00,
0x2916f805,
0x08f1fdf4,
0x1703fef1,
0x18ee1708,
0x0104011b,
0x01f41617,
0xf12afbfa,
0x1712c6f7,
0x0f0af716,
0xe108fdfe,
0x080e0207,
0xf1d1e415,
0xec0deef4,
0xd6fafbfc,
0x0cdbf805,
0xe93127f4,
0x000cf70d,
0xf2041204,
0x070d0514,
0x2b35330c,
0x08080610,
0x0b091418,
0x14ed0712,
0x3e29260b,
0x141607f3,
0x2008f103,
0xfef90bf4,
0xe1cbed0a,
0xe813fd11,
0x09070bfd,
0x0700fb00,
0xc1b4bb12,
0xbbf30a01,
0xe8f712fb,
0x15cb0e15,
0xcbcddd18,
0xf5faeef1,
0xde0914f0,
0xf4ceeff8,
0xe6090114,
0xfffdf1da,
0x1402fafd,
0x0ac50814,
0x0bf7fa12,
0xf9fcf3ea,
0x070aeff4,
0x05cb1406,
0xf3f52d0a,
0x0aeffc1c,
0x1e0119f3,
0xfa0f0d06,
0xfbfc251a,
0xeb14effc,
0x1d071a13,
0x0102faf9,
0xe90611fc,
0xfcfa011d,
0x16eefc01,
0x0c0bfb17,
0xf8ed12f8,
0x16f40707,
0x4d100f0a,
0x030dfefc,
0xf10103f9,
0x080cf509,
0x45f7ff0b,
0x19200007,
0x1a1e1f06,
0x04010bff,
0x1502140c,
0xf001120c,
0x3d3b0314,
0x1cf10f09,
0xd70bedf6,
0xfd1df2fc,
0x293e0ef7,
0x04f211e6,
0xebf4fafe,
0x17ef1609,
0x391a0f16,
0x331905f3,
0x0e081406,
0x01050603,
0x2622d30e,
0x0507f60d,
0xe70d1200,
0x17dc160d,
0x231ff200,
0x13120a0a,
0xee1107fe,
0xfb2ff600,
0x090281fd,
0xd9f9ff28,
0x8afcf1fb,
0xf91d0a03,
0xe1fbfb10,
0xc0f206cd,
0xaff90407,
0xf9d40511,
0x021524fb,
0x1bf301ea,
0x2317fbfd,
0x0af8020b,
0xf1d2e9f9,
0xbef2efed,
0x0c07f512,
0x0f2316fd,
0xecfcbd03,
0xf614ef1c,
0x930d1304,
0xfddefe0c,
0xc8ae9cee,
0xcff00909,
0x8efcecf4,
0x03d815ec,
0xf4422603,
0x07f4fb11,
0xa616f0ef,
0x1614f609,
0x1b2bf9f6,
0xf61407f5,
0xcdf415fe,
0x0d06f40f,
0x04fdfc18,
0xd9ef13fa,
0xc40ff906,
0x0c06ff0b,
0xb5b0060c,
0xd9101808,
0x2cfd190d,
0x12d80cf5,
0x9adb0f0e,
0xdff702ea,
0x510f0efd,
0xedee04ee,
0xddcb310b,
0x18f5ef00,
0x07f2fff0,
0x03ef0dfa,
0xa8c21009,
0xdd16150d,
0xe50706ff,
0xf205fa18,
0xdfe6f415,
0x03071218,
0x04fd0715,
0x10191617,
0x03f30517,
0x1610f41c,
0xff10ee07,
0x061716f8,
0xf0f2dd16,
0x0309050d,
0xc405000e,
0xfb1d1009,
0xdcc6b1f8,
0xc103f700,
0xddfe0e00,
0xfde51602,
0xedf8d8f5,
0xe1f1fbf1,
0xccefecfa,
0x03a600fc,
0x273f3e0e,
0x1aff13e1,
0x25121008,
0x01f31501,
0x2112c00d,
0xfe00fefa,
0xa007f60f,
0xf5161108,
0xc9d14b0e,
0xd80205d6,
0x1b0dfcf4,
0x150114ff,
0x11054700,
0xed04ff30,
0x370004f8,
0xef580918,
0x11049b13,
0xd1ff0347,
0xcffa02fb,
0xfc1313f4,
0x325f1b16,
0x32f117e3,
0xc3f30a07,
0x17941502,
0xbddbd00b,
0xc70bf32a,
0xa6fc11ff,
0x08e400ff,
0x3d54c610,
0x1906f620,
0x95fff0ff,
0xf01c02ec,
0x2628b317,
0x0200fbf1,
0x81fd1404,
0xedf4050b,
0xcde9130b,
0xb40307cf,
0xc1050713,
0x15cefcff,
0xda001d01,
0xe10417bf,
0x3710ff02,
0x15e80b12,
0xcab4f20a,
0xfbed0115,
0x0710fffb,
0x07f60e17,
0x9182bff7,
0xd81506e1,
0xed0ff50c,
0x04cefa16,
0xb7adebf8,
0xce17f6d9,
0x1c09f9f6,
0x13e50cf2,
0xf322fe01,
0xfe0f0ff5,
0x0417100b,
0x1703f0fb,
0x16ffe010,
0x0bf81217,
0x0315ed10,
0x0e261506,
0x04fb1317,
0x16f518fd,
0x37f70ffc,
0x02faf016,
0x08023e0d,
0x1df50313,
0x2ef50305,
0xfb0418fa,
0xfbf74a02,
0x3a0b0e23,
0x5909edf4,
0x151ef9ec,
0x1dfbd4f2,
0xfa11ed36,
0x14000615,
0xf40c12f3,
0xecdbe3f3,
0xff0c091e,
0xe302f303,
0x011ef3ff,
0x052bbcef,
0x0402eef8,
0xc107ed0b,
0xfa0912f6,
0x29282a07,
0x030df7e4,
0xd005ff12,
0x0ff60a0a,
0x2e1d5d11,
0x3f0b0ae2,
0x0f15eefd,
0xf72a170f,
0x0a0bcffa,
0xd606fd02,
0xcc10e806,
0x0421f50d,
0x04e3ef06,
0xfff50cfd,
0xce0108f9,
0xf80c0304,
0xdabe9ae9,
0xd407fcee,
0x90f0100b,
0x0fe211f5,
0xdefd27f8,
0x01f5f8c3,
0xe81202eb,
0x05c814fc,
0xf9e73314,
0x630b0110,
0x590917f8,
0xf123eef5,
0xb8c2a811,
0xa8fefe24,
0xf10bf1fe,
0x09ff18f3,
0xe4f1e4eb,
0xd00eec00,
0xc607ee01,
0x1303f4f5,
0xc3b8ca11,
0xf3f3ed00,
0xd1fbece9,
0xfcde0dfb,
0xee176cfe,
0x7713f60d,
0x380cf707,
0xfa120e0c,
0x67657fec,
0x6611131f,
0x37151612,
0xe95b13ec,
0xebe7e70a,
0xc80b0717,
0x18f708ee,
0x080e05ee,
0xd6ec1407,
0xf704e907,
0x03fcfaf6,
0x14eaf9fb,
0xf3d32510,
0x02f9ed4d,
0x4511efe9,
0x0b4bf905,
0xf4ece503,
0x350af5fb,
0xebf3f8eb,
0xf5fef305,
0xf70b06fa,
0x59f909af,
0xc40410ee,
0x17bb11fc,
0x22121102,
0x0b13e9ee,
0x3decf613,
0x021af310,
0x3014fe03,
0xfe01f30c,
0x2b1102ee,
0x1413f5fc,
0x3308fced,
0x38ecf9fb,
0x1fecefff,
0xf9f308fb,
0xe5a8b90c,
0xfb17f4eb,
0xecedfb0c,
0x01c012ee,
0xf10fcdf2,
0xf7100de4,
0xe30a15f1,
0x00b008f6,
0x2136f316,
0x270707c3,
0xe8fdfa0e,
0x05db12fc,
0xfff20af8,
0x05fffac8,
0x040f140e,
0x0bd6f6f2,
0xfeee13fe,
0x0c171306,
0x2f041210,
0xfa0d0218,
0x0ef716fe,
0x08080026,
0x2612fefe,
0x1340f2f1,
0xe5e6c519,
0xcd0e0f10,
0x34f3f005,
0xf01cef00,
0x16fa58f1,
0x2cfd06f3,
0x7ef1fef6,
0x0319010c,
0x2820300d,
0x300c0919,
0x45f3180f,
0x0b4afbf8,
0xe7e81a02,
0x1e070d00,
0x23071af8,
0x0ce709ff,
0x00f70702,
0x07f80d20,
0xfc00f719,
0x172e0bf7,
0xaba2f2f3,
0xaa01fa16,
0x271a1318,
0x10eff21c,
0x1f132004,
0x4718fd1d,
0x39190b0f,
0x1225181a,
0xef10ca09,
0xf5110504,
0xd6061af3,
0x08e80607,
0x102813f7,
0x060c0c2a,
0x0209eff2,
0x143a0218,
0x1b05f010,
0xfd10f32a,
0xe504fef4,
0x163cf713,
0x051e3ff3,
0xe307011a,
0x0ef21c16,
0x13011905,
0x3807fa07,
0x3d170a20,
0x2405160e,
0x14210303,
0xeeefd713,
0xc9180701,
0x021019f6,
0xf12b130d,
0x04cba8f4,
0x06fcfcfb,
0xbc160a0b,
0xffd7f418,
0xc6d7a718,
0xb30dfcfe,
0x99001500,
0x0dc11a0d,
0x14501815,
0x07030fe6,
0x81f80b0b,
0xf3eefc08,
0x0b08ec09,
0xe1f8fbf5,
0xc10bfcfa,
0x0ad90015,
0xe407e114,
0xfef5f3fc,
0xd0fc06f5,
0xf5e8fb1a,
0xc6e50e0f,
0xee1bfd1a,
0x30f308f2,
0x1aec02f7,
0xcbe6e505,
0xde180523,
0xfaf61312,
0x13330514,
0xe8d2f716,
0x05140102,
0xbaf50d02,
0xfdf506f5,
0xd5f11c1a,
0xf8ff100f,
0xd1041710,
0xf903020c,
0x060f1407,
0xebf3f430,
0xfef91706,
0xf0170af9,
0x051c4114,
0x2e10ea10,
0x39080716,
0xf83003fe,
0x0e24fe0f,
0x13fdf131,
0x09ea0313,
0x0915f2f1,
0xdbeeff14,
0xfb0efcf9,
0x0b02ef0d,
0x0afdee1a,
0xe2cd1aff,
0x19ebf105,
0x600a05ff,
0xf60715ec,
0xf0ec0417,
0xfd0e0212,
0x2afe02fd,
0xec3f03f5,
0x31ffe90c,
0x2b1716eb,
0xcafc000d,
0xead9ff15,
0x22121008,
0x3417fce8,
0xb7fe00f9,
0x18c3eff2,
0x2b667f09,
0x2813ebf0,
0xf609f5eb,
0xedfa17fe,
0x4d3139f8,
0x3eeeef27,
0x4b0eecfc,
0xf2401905,
0x1101cdf1,
0xf6ef0407,
0x0605fcec,
0x1b080e00,
0xe4fcd4f8,
0x04fd0f10,
0xc10b03f1,
0xf901f905,
0xf5d4ac02,
0xfaea14fd,
0xa0ed12f5,
0x04fc17f6,
0xe80719e9,
0xf90af9c5,
0xa6fdebf3,
0xf1c1f3f9,
0x17383b0b,
0x55f4f006,
0x0ff8f704,
0xf408ff14,
0xf9e210f1,
0xcff9170c,
0x0e16f614,
0xf022f90f,
0xdbd3a7ea,
0xf50cf115,
0xcb0f04f9,
0xf10a1401,
0x9b9fd805,
0xe2ed03fb,
0xa3f516f0,
0xedd20afc,
0xf23612f7,
0x0e110f0e,
0xf10d0a0a,
0x0a14e6eb,
0x473bf5ec,
0x390ef608,
0xdb04fc15,
0x0aed15f6,
0x1e14fbf4,
0x01ee13fe,
0xc70a15fd,
0x150b1a19,
0xd4acdeef,
0xe4e900f6,
0x42f8ee07,
0x10e5eefc,
0xd900faf6,
0xc20f12e9,
0x1b11090f,
0x0ae5f6fd,
0xfbf3310e,
0x2b1600f4,
0x19effaf3,
0xff020812,
0xc2c2d6fd,
0xd7071415,
0xe5f7f117,
0x11e404fc,
0xebcfe2f4,
0xef030916,
0xe0f9e81a,
0x14dee808,
0x17f0af22,
0xff21020c,
0xb3111c01,
0x1207250e,
0xccdcdb19,
0xe40604dc,
0xdc24230e,
0x20f7070f,
0x1af82621,
0x2dfa0fdc,
0x5407f716,
0x0b2e2222,
0x09f0b419,
0xfe240b17,
0xdf1c0614,
0x244a260b,
0xff0bc209,
0xf0230d10,
0x9f0d1eff,
0x1218fc1a,
0xc6c5c522,
0xd511fc2b,
0xd71a0700,
0x0af8f3f3,
0xe1161bfe,
0xb0002015,
0x420920ff,
0xfd12fc1f,
0x5929301e,
0x3c1dfb28,
0x7f1f1d23,
0x0375fd0f,
0xafaa8df8,
0x910f1728,
0xeefef106,
0x253b1215,
0x9f96031b,
0xa6f5fc0a,
0xca140821,
0x161af91a,
0x0206c0fe,
0xc617141d,
0xee0f1124,
0x050fff0e,
0xf60e4e0e,
0xf61425ce,
0x3624081a,
0xf515fa14,
0x475f1802,
0x2d1d0824,
0x2dff1016,
0xf40cf906,
0xf4f0c825,
0xc0011809,
0xccf8fff6,
0xfd0f1c0e,
0xff08040d,
0xf21a0b4c,
0xf31a1408,
0xfd401ffb,
0xcdf3ba24,
0xc51f0ad4,
0xe9021618,
0xfcda061e,
0x5d6968fd,
0xf4081309,
0x2ef5011d,
0xf51c1c1c,
0x17f3ee20,
0xebfffd1c,
0xe1181df4,
0x121406fd,
0xd2b4f3fb,
0xc922210b,
0x10030024,
0x18eb1efe,
0xf808edf9,
0xf90e23f6,
0xe105f60f,
0xf60719fe,
0xd9dbec02,
0xc4fa0f47,
0x0d2001f5,
0xfb4810f8,
0x341cf90a,
0x18f5fc2d,
0xb0f51524,
0x06350016,
0xf2eff50c,
0xe9152406,
0xc0fc1709,
0xfbfb0011,
0x0a12fdf9,
0xf3f50d12,
0x09151800,
0x0f232221,
0xdae70a19,
0xeb1a1c15,
0xfffdfb23,
0x1af80cf2,
0x06f7f3ee,
0xf6f7fbf8,
0xea04f9e8,
0xefeded00,
0x142331f5,
0x17f100f6,
0xfcfceaf5,
0xf8edfee7,
0x29367f03,
0x54e805ff,
0x26f1f9f2,
0xfd26eaf3,
0x040420f1,
0x1cecf011,
0x3101f506,
0xed2b03fa,
0xdfcfeef0,
0xe3fff208,
0x03f1f8f9,
0x040ff9ea,
0xe5f611f7,
0xf806ea08,
0x0bf702eb,
0xf10b04fe,
0xf4ea26ec,
0x0eefe7f9,
0x03ec03fb,
0x02e6f4ec,
0x1b050bfc,
0x34fc05ff,
0x0aefe905,
0xf2fbf7ff,
0x150b0ee7,
0x31f5ece6,
0x17f104f6,
0xe8e500f9,
0x0deffc00,
0x04ff0521,
0x0febe8f6,
0xfe2ef605,
0xfe0ffff3,
0x0aecf0e0,
0x16e7f0ed,
0xe7f2f903,
0x2a2835fe,
0x25fdf70e,
0x0fecf001,
0xfc11f103,
0xfeefe8e8,
0x14050314,
0x07effdf6,
0xfa2003fb,
0x1a0a13f1,
0x2ee7eeed,
0x09f4f6f5,
0xf8eaefeb,
0x100704e8,
0x06fdef07,
0xe0fbf103,
0xfc0aff07,
0xf00e2d00,
0x05040008,
0x38f4edfb,
0xf708ecec,
0x04dde3eb,
0x24eff00a,
0x1aedeffb,
0xf5f2f3fe,
0xd7c4ebe8,
0x0cebf9ec,
0x14f5edfe,
0x03c6ef02,
0x1d011f03,
0x2604f00d,
0x06ebeeeb,
0xeb26eeec,
0xf4f1e4f7,
0xf5ebebfd,
0x06ecf0f7,
0x01f5fb07,
0x18312cea,
0x21f8f70b,
0x0ff3fff1,
0xf31300f6,
0x2e0237ec,
0x2aee050b,
0x2df503e6,
0x0623ede9,
0x422cfeeb,
0x2fef0504,
0x17fdfcec,
0xef17e8ea,
0x1df0ebec,
0x1efb06e9,
0x03f605e7,
0x05eef001,
0xf5f5f3ed,
0xf0fef3fa,
0xf8e7f3ee,
0xf4dd0700,
0xf9041808,
0xfbfb1308,
0x1cf5fe12,
0xf9f3fe0c,
0x0130370d,
0x01fafe08,
0xea071300,
0xf3ee020d,
0x0d225a01,
0x17f50704,
0x0d10f505,
0xf5f4fe01,
0xf119e3fe,
0xe20d0bfd,
0x13fffaf1,
0x12fffbf4,
0x0111f900,
0xecfdf70d,
0x181611f4,
0xf7fd0e0e,
0xfeff05ff,
0x12f20afa,
0x0dfffd14,
0x080bfa0c,
0x2722fbf2,
0x28fbf30e,
0xc00415f7,
0xfb0206fb,
0x424c1bff,
0x57ff04d7,
0xcaf6fcfa,
0xffc106f5,
0x1214100f,
0x15f9f2ed,
0xf5f6110e,
0xfff9fbf3,
0x131fe7f7,
0x06fdf2f8,
0xfa04fdf4,
0xfe1bf308,
0x1821f715,
0x04090209,
0xe0ff0bf4,
0x06180f0f,
0x05fa9b04,
0xdcf3f416,
0x920b08f5,
0xf90f0514,
0xfb13f8f6,
0xcefa0be1,
0x9408f80c,
0x11e3f80e,
0x14041b01,
0x02fb08ee,
0xe006020d,
0xf60b0d0b,
0xfbf2f512,
0xf6f1fcff,
0xef15040a,
0xffe9f9f8,
0x1700e9f4,
0x1d130320,
0xe8ff1309,
0x131d0408,
0xada281fb,
0xd11200fe,
0xa900f000,
0xf1c6f213,
0xd4100106,
0xed07f5eb,
0xd4f00803,
0x04e51000,
0x2f222f11,
0x01f804fb,
0x0bf80c07,
0xfc0e08f9,
0xfdfe0dfb,
0xfff1ff22,
0x020214fc,
0xf3201604,
0x00d30b09,
0x2511f4ff,
0x4911ffff,
0x14eaf9f5,
0xb99e180f,
0xe40efde2,
0x4ef1f908,
0x05d6f20e,
0xc3c41e00,
0x060afde4,
0x3b07110d,
0x10f2f00c,
0xd1e10f01,
0x240cf509,
0x2614f20d,
0x08cf000a,
0xf5ee0b07,
0xfe070a01,
0xfcf102f4,
0x090d1414,
0xfff9170f,
0xf5eaeef0,
0x27f5f30c,
0x0d00f8eb,
0xef151f00,
0x25e9f7ff,
0x1de7eafc,
0xe8180a00,
0xebf409fb,
0x15effd05,
0x06fef507,
0xecfaec06,
0x05080b05,
0x07f8f2ef,
0x2e04eaed,
0xf3d7f912,
0xf31633ea,
0x2b0ef7e6,
0x490910fe,
0xe9eee705,
0x23583204,
0x23f8f41b,
0xddf3eef1,
0xfe3a0006,
0x1e1f1d09,
0x37faf6f8,
0x03fa0df1,
0x031bf7fb,
0xfece2610,
0x2ff1fa05,
0x40f213f8,
0xec01eaee,
0x0d12e111,
0xfc10f2fb,
0x1efff4eb,
0x09f2eff8,
0x53571c00,
0x33ecf508,
0xe904e809,
0x00110a07,
0x03e9b9fd,
0xf8fb0ed4,
0x8f04e9fd,
0xf5c206f0,
0xec4529fe,
0x51100bbc,
0xc40c040c,
0xf2c1f9f7,
0x757f48ee,
0x3903e904,
0xfc08e710,
0x103bfefd,
0xf6f4b211,
0xde060cf8,
0xb711ffec,
0xf50ff7ed,
0x05ede306,
0xf60907b1,
0xdbed0000,
0x039feff3,
0xc6aaf110,
0xf202e914,
0x0607edfe,
0xf6ebe7f6,
0xe328f201,
0x0cf409ea,
0xd5e7eb0a,
0xe8ecfff7,
0x13ebab11,
0xf1f4f6c0,
0xaa0605f0,
0xf9b00d05,
0xa8d1d7ec,
0xb20000e3,
0xcd0bf1e7,
0x03ce0e07,
0xf9d80dfd,
0xf0eeeaf7,
0xfcedf805,
0x04faf6f9,
0x1a040fe8,
0x01ff11eb,
0x2f03f70d,
0xff0bea0c,
0xf3eb330c,
0x0efff9f2,
0x2c0c0510,
0xfc12ef05,
0xd8cc3dfb,
0x0100f11e,
0x4c02efec,
0xef120eed,
0x03fb000a,
0xe800ec40,
0x2405ea02,
0xff4ce9f0,
0xf3f607f9,
0x14010815,
0xf1feebe7,
0xfa210205,
0xdae1a0f5,
0xd8eae8d9,
0xafe7ff05,
0xede50ee4,
0xf2193413,
0xf3e20dc4,
0xd60b10e9,
0xfaf9edfa,
0x41336913,
0x7ffe1101,
0x31e7ebf1,
0xff4ee4f1,
0x3724f401,
0x10e70713,
0xe800eaf0,
0xe45b0ce4,
0x08fcf100,
0xcde9e3e6,
0xdde7f314,
0xf302f008,
0xe0f104ec,
0xc208e911,
0x0ffffdf1,
0x092013f9,
0xd9f43f05,
0xf8f6f607,
0x53f010f6,
0x0028fafc,
0xd28ac20c,
0x2afb0c0e,
0x18f8f3e9,
0xfff6e9e9,
0xaabdbe11,
0xe70af4d9,
0xfbfdf3ed,
0xeed20913,
0xf4fedbf9,
0xea09040c,
0xee0df8ec,
0xe621e707,
0x09fbf805,
0x2004f9fa,
0xeb0403f8,
0xe80212e9,
0x307a7713,
0x59f7ff1c,
0x4100e8e5,
0xf5feec07,
0x4b6123f3,
0x47ef0d20,
0x450e09f4,
0xe75b130c,
0x19e10702,
0xe0110a2c,
0x2bfbfff8,
0x0316e9e7,
0xd7d7cff7,
0x13f3f707,
0xf905e9f1,
0x0cfa0d00,
0xe5db44e5,
0xf001fc2b,
0x28f5f0ec,
0xff190d0d,
0x0609d7e7,
0x1eed0afd,
0xff12f9eb,
0xed0008fa,
0xf40f11fc,
0x35f2ecd2,
0xd10ff0f6,
0xe9bb06f7,
0x16092002,
0x30f0f207,
0x18e50ae5,
0xef44f1ef,
0xdfe2f4f7,
0xe9080e13,
0x270af2f6,
0x15140cea,
0x251cff09,
0x1df7f9ff,
0x0303ecea,
0x03e8ffed,
0xf9b1e5f7,
0x1508edf7,
0xeb06fce9,
0x0edd1312,
0x1f4ec8fe,
0x0efbf3c8,
0xd1ede5fb,
0xf6de1005,
0x2d301ef0,
0x39efe4ba,
0x12e9f4e6,
0x0fc70400,
0x3110f2f0,
0xe70f1300,
0x070904ec,
0xf414f702,
0x222f2dfd,
0x05effc0a,
0x2fff1102,
0xff07ed17,
0x1c502df9,
0x40edee11,
0xe3effcfb,
0x05fa17f5,
0x132a4f10,
0x331208f6,
0xfdfb0b11,
0xff0c11fc,
0x0ee0e207,
0xd3f0ec0e,
0x2114ed04,
0xed1711ec,
0xf9ccdd15,
0x020504fa,
0xdff6ff04,
0xef26fa09,
0xfbfac7f2,
0x19fcebea,
0x83eef80e,
0x01d109fa,
0xee1c06ff,
0x0e08fac1,
0x98fef3f2,
0x16bdf113,
0x1c397f00,
0x5b1501e0,
0x24131810,
0xf60cf9fb,
0x1121f6f7,
0xdded1322,
0x150d0d11,
0xfc5c040e,
0xebdebef7,
0xca02f039,
0xf1fdf60a,
0x1141ebf3,
0xbbde8d09,
0xdd1015d7,
0x8c100d01,
0x05be080c,
0xbcef1b09,
0x0c0911d1,
0xb1f6ef10,
0xfed20eec,
0x563c5216,
0x58140fe1,
0x091412f7,
0x00160a04,
0x13fc01eb,
0x1513f007,
0xee0d1209,
0x100ef3eb,
0xecfb0801,
0xf0fefc17,
0x0bf906ee,
0xf5e40c03,
0xc6a1b1fb,
0xe306fd14,
0x030011f6,
0xfcf50601,
0xd2ccdb0c,
0xf8f309c8,
0xd6f501ff,
0x06c106fe,
0xe8f81fef,
0x27f507c6,
0xfbfdfafe,
0x0ae6f70f,
0x031a2e08,
0x2bff0efb,
0x39f3f8f3,
0xfddf0c14,
0x23171b12,
0x02eb11ef,
0x3d13f90f,
0xfc080aff,
0x1fd30cf0,
0xf6f5fa1c,
0x2f11fef8,
0x060502eb,
0xe5e3cf0f,
0xf0f9faf9,
0x2700f0f9,
0x15df0106,
0x0c2727eb,
0x17050efe,
0x0f0dfdfc,
0xefffee06,
0x324706f9,
0x16edebf9,
0x0cfbef0c,
0x0afceb0d,
0x03edf8f1,
0xe6020dfd,
0x05000714,
0x11e00afb,
0x050eff16,
0x060e0818,
0x06050311,
0xfdf416f6,
0xf0f4ef17,
0x06f4fcf2,
0xf607f205,
0x0e1a1711,
0x00dd11fd,
0xfd011cf5,
0x2307181b,
0x10030d0c,
0xf6e3fa06,
0xf3090115,
0x52190df7,
0x153311fa,
0xfc0feaf5,
0x0e11160b,
0xf9f915f3,
0xf52a0e12,
0x0b07edf9,
0x0af81b18,
0x041af30d,
0x0c000301,
0xe9e001f3,
0xfc1402ee,
0x1a0d080d,
0x000513f7,
0x08eb661a,
0x04161615,
0x7a0f1a05,
0x1821140e,
0xf6e4080b,
0xfd021817,
0x5b05f108,
0x0134f506,
0xd8dccf0a,
0xe5131b16,
0xee180bff,
0x0204fbf2,
0x1116ca04,
0xfa100e12,
0xc3f6f005,
0xfe1e1a01,
0xf8ff0c0d,
0xeb0df5f1,
0x17030f1a,
0x0a12f705,
0x61647f15,
0x3e060510,
0x3810fb09,
0x03281802,
0x270ee812,
0xf61c0622,
0xe7f6f505,
0xfd2f0d18,
0x0d03fcf7,
0xce071819,
0xf6110701,
0x000d1511,
0xedd3b3f2,
0xd6fc0bf8,
0xab04fffd,
0x10d61b0a,
0xf333eff6,
0xd41a06e7,
0xc40f0105,
0x0a0b0b07,
0x16341e0d,
0x2c0915f2,
0xac0713fb,
0xfcee0bf3,
0xc9f5ea16,
0xc4faffe7,
0xabf4f813,
0x07b319fa,
0xec1f02f8,
0xd9000210,
0xc60bf704,
0xf5df0b0a,
0xd0d2f015,
0xc1191a0e,
0x1d0b130e,
0xfa20110e,
0xd713d417,
0xef0a022e,
0xe6f11815,
0xf82e0104,
0xe0f00114,
0x02000b08,
0xddfd1a11,
0xf2010910,
0xf1dbf711,
0xe0011a10,
0xfa011af8,
0xfb290c03,
0xd6f91902,
0xf7fe071d,
0x0204031b,
0xf1070a0e,
0x141717f4,
0x0900f107,
0x0e01f504,
0xfe0cfdf6,
0x1304e207,
0x18091302,
0xee030818,
0xf4f4fafa,
0xe0f89bf3,
0xc1f804ef,
0xcc1516f5,
0x06fd11f3,
0xe4d7ed15,
0xe60312ef,
0xf9fcfbfa,
0xffdffefd,
0xe900fb16,
0x0b030615,
0xd1010c17,
0xff031509,
0xfbece411,
0x0b1214e5,
0x06f4000a,
0x0ac2f417,
0xfbfca60b,
0xd30e091b,
0x9cef02fd,
0x0de51210,
0xea1d000a,
0xd803f0f1,
0xb5eff8f4,
0x14eb08f4,
0x0f2427f2,
0x020b170b,
0x11fff5ff,
0xfc411609,
0xcad2f9fb,
0xe61207fb,
0x1709f8ff,
0x0616f816,
0x09f232f3,
0x1b05f6ee,
0x400bf204,
0x12f3fd0e,
0xb581b215,
0xb0f4eff8,
0xef0a07f6,
0xfef6fd16,
0xa3a82104,
0xd40e0be3,
0x17fa16f2,
0x14d4effc,
0x0afa1a05,
0x27f806fa,
0x370906f8,
0xf1fc1310,
0x10281d04,
0x15f81919,
0x24031311,
0xf5111507,
0x2e14ef08,
0xf1f309e3,
0xe4f9f2ff,
0x110e14f7,
0x16171d08,
0xd2f912eb,
0x1a0df0fb,
0x16ef17ef,
0x0d3a4e0d,
0x13f11229,
0x1705fbef,
0x1058f316,
0x1f3906f6,
0x150ef7f7,
0x2e130918,
0x02f71102,
0x3d473603,
0x360a0dd1,
0x27fe1bf0,
0xffc90e0d,
0xc2cfc00b,
0xcdf41004,
0xcc141804,
0x19010411,
0xff1692ef,
0xb8ff0601,
0x9717fa0a,
0x11031110,
0xe2e0f600,
0xf0f2f003,
0xad0cfa10,
0xfbfafd08,
0x132e02f3,
0xf5f112df,
0xfd11f0f2,
0xfdfa1517,
0x2d220e10,
0x101016ea,
0x19f30610,
0x18e40e17,
0x1f2017e9,
0x05fa0601,
0x130b0afd,
0x11150e02,
0xfa323f13,
0x15ef16e8,
0x030719f0,
0xf2eafb1c,
0x1a157f00,
0x1ef108f7,
0x27f31211,
0x1016feeb,
0x0de5e116,
0x03120b03,
0x0b1a08fa,
0xf13b11f9,
0xe9ebc502,
0xf40dec0c,
0xda06e911,
0xebf10417,
0x12fd0ffa,
0x0418f221,
0xe9181b03,
0xf025ff10,
0x0a11efeb,
0x261308d0,
0xcf090eff,
0xf8e41901,
0x5c7559f5,
0x7bfeead2,
0x23000d01,
0x1ad01312,
0x0d2700ec,
0x101807fa,
0x23061cf5,
0x19e913fa,
0x0ac7f616,
0xe80ef813,
0x1817f806,
0xee3afc01,
0xf613d7fd,
0x07f2eafe,
0xc8f70119,
0x13030105,
0x04f3cd15,
0xd3ed1218,
0xb6efff16,
0x0e221b10,
0x23450b17,
0xfb1215d6,
0xcd19f203,
0xf0dd0906,
0x532840ef,
0x2908f5e8,
0xf212ff06,
0xfdf203fc,
0x000cf019,
0xeffa141a,
0xecfe15f7,
0x07421415,
0xd1f2be10,
0xedfbfe1d,
0xd5ed0415,
0xebdcf208,
0xe7b7c3e9,
0xe4f1f8fb,
0xb8efe8eb,
0x07eaf9f3,
0xbffa09ed,
0xf8fe0dcb,
0xd50b07f6,
0x12cbf3f2,
0x1c1cf713,
0x2b0feafb,
0xc2f019f3,
0xeefaf8ee,
0xfef7bef9,
0xcdfbf91f,
0xcd0309fb,
0xf5281615,
0xefba1318,
0xe7fe0d08,
0x5b060719,
0x101108f0,
0xc2ca2fea,
0x1df10f08,
0x641203eb,
0xf5eb00f8,
0xe3e523f7,
0x2f00f320,
0x360c12f1,
0x080dfc12,
0xb3b0f115,
0xfef30e20,
0xe40ffefd,
0x0008f412,
0xafc302f4,
0xdb07fa1f,
0xf30b0508,
0xf0e802ec,
0x13fe1aff,
0xf3f6f1fd,
0x14fb04f3,
0x0af8f208,
0x122f340f,
0x08080105,
0x0c04f213,
0x0afa0710,
0x0d2a7f05,
0x31f2f7fe,
0x1cf1f4fe,
0xfe180ef6,
0x0c0cf508,
0xe901061d,
0xf201140b,
0x1312f8fb,
0xe5f8f509,
0xe507fff4,
0xe3f20ff9,
0xfbfbf610,
0x08fa27f8,
0x09f30c01,
0x32f10e02,
0xfa15050a,
0x142be705,
0x37130803,
0xd9f10f08,
0x09f5faf1,
0x383303fd,
0x3906f9cc,
0xb802f9fd,
0x07d00107,
0x100718f9,
0xf810fadc,
0xed131006,
0x0bd5f709,
0x01ecf70b,
0xf104fe0a,
0x14fc11f7,
0xf211f0f2,
0x332b15fe,
0x23fb0616,
0x00f3fc01,
0x011df2f5,
0x0812bcfb,
0xdc0ef03a,
0xb1fbf502,
0xfd1202fb,
0xe117ddf3,
0xcd1209e9,
0x9bf912fe,
0x10f1eef9,
0x211a3c09,
0x1507ffe0,
0x13ef05f8,
0x11ecf9f5,
0xf6e1f514,
0x0107f806,
0xfb05f80b,
0x030615f3,
0x13fb0507,
0x2df1fc16,
0xde0dfe12,
0xfa03fc05,
0xcfa2a608,
0xd9fdfff3,
0xbafaef0d,
0x05e5f302,
0xadfce8ef,
0xdb0106dc,
0xe0f9ef00,
0x0cd8f4fa,
0x13273800,
0x2f02f616,
0x0f03f8fe,
0xf011f4ef,
0x0cfdf7f4,
0x0bef0111,
0xf7f6fcf0,
0xfe2a03f4,
0xece42a13,
0x140005e7,
0x36090f12,
0xf5d9fb00,
0xbcad2012,
0xe50ef8f4,
0x6b10fff5,
0x05ed120d,
0xcbea1af8,
0x1ff0fcfc,
0x2aff04f4,
0x05f50cfb,
0xc7ce1bf9,
0x0cfeeef7,
0x200c09f6,
0x0fd900ff,
0x03fdf200,
0x16f307f7,
0x0e030af4,
0xf4fef007,
0xedfb12ee,
0xefff00f9,
0x03f100ed,
0xedeffbfa,
0x140a38eb,
0x14efecef,
0x0deef503,
0x05e9e7fe,
0x0f237ff0,
0x2ff4f7fb,
0x21f0f1fb,
0x060efef5,
0xfdec1ff0,
0x11f6f710,
0x5bf803f8,
0xf021f302,
0xf5daefeb,
0xf9fa00fd,
0x2df4fcf9,
0xfa11f6f1,
0xf60b1efb,
0xf506f1f4,
0x1bf904fb,
0xe90cecf3,
0xf1fe07fe,
0x150004e3,
0x02eb00ef,
0xfde3f1f6,
0x2923fdff,
0x3e02fff2,
0xdcea04eb,
0x06e6fffc,
0x252e2de9,
0x45fdf4ed,
0x18ee0405,
0xf0ea06f9,
0x25fb20ea,
0xf8ef061f,
0x21eef3e9,
0xf82ff007,
0xf8101401,
0x19e7ece7,
0x13e800fd,
0xf405e8f9,
0x151e2afc,
0x1103eb08,
0x1b05eefd,
0xf907edeb,
0xd8d4c8fc,
0xe905f809,
0xd7fbebf2,
0xfdfd06f6,
0x271c1006,
0x3800ede5,
0xeffdffef,
0xf2e70104,
0x0ff2ffe9,
0x11e9010d,
0xecfbfef8,
0xf8f504fb,
0x031c29f6,
0x10f306fb,
0x35f6f6f1,
0xf9fefaf7,
0x02e0e3fa,
0x1df9fd00,
0xfcf1f1f1,
0xf900eeeb,
0xdde7cc01,
0xe6f3f1f2,
0xfd01f205,
0xeee601f5,
0xfd0120ed,
0x19e7ea03,
0x0b01f5fe,
0xf805f3f5,
0xf3e4f9f2,
0x08f5eb06,
0xf701e9e8,
0x0701fbeb,
0x201630eb,
0x11f8f2e7,
0x0901fdf2,
0xf1fffaea,
0x05f03005,
0x1ef1f2f8,
0x3b00edf1,
0xf10505f1,
0x1e1010fb,
0x0beb050a,
0x3bf1f3f4,
0xfb0e07fe,
0xf5de0eeb,
0x07fafb06,
0x1901f9f4,
0x02effde9,
0xf207ebf8,
0xf204fffe,
0xf004faef,
0xfdfaec01,
0xfae91c03,
0xf5f8ffef,
0xfe0dfd04,
0xfae5edf8,
0x07da0bed,
0x0d08ea11,
0x49f4fd08,
0xecfbecf7,
0xffd9c20a,
0xddfdf10a,
0xfc0106ff,
0xeb1ef3ed,
0x0a181101,
0x13ebf4fa,
0xf4f3f20a,
0x0b0108eb,
0x1602040c,
0x0a0af4f7,
0x0d0803ef,
0x07fbf3f3,
0x11fe4df0,
0x1bf80716,
0x48ecfceb,
0xff0d0a09,
0x02f1060e,
0x1202ed2e,
0x56fdfdea,
0x0e4207f1,
0xa78197f0,
0x91f8f505,
0x0feeff08,
0x07f703fb,
0xd3e017eb,
0x14f608e7,
0x150c0602,
0xefde0aff,
0xfef21309,
0x02e9fffb,
0x1005f50d,
0xf4e201ea,
0x38293bff,
0x29fa0314,
0x25ebfe04,
0x0b0df3f8,
0x0a18140c,
0xfd0bf9fd,
0x46f1f6f1,
0xf0fa0dec,
0x09ff2bf5,
0xe00a050e,
0x60fdfd07,
0x0c36f204,
0xfb0916ec,
0x1e03f911,
0x4ff7faf4,
0x01280d00,
0x19fff308,
0x0a000c04,
0x0a0af8fb,
0x060bfa0b,
0x102415f8,
0xeaecf5df,
0xf40aeafa,
0xebe8fd09,
0x21351bea,
0x0f09ea0e,
0x03eafa00,
0xf017f5fd,
0x331d0501,
0x17eaea00,
0xd903fbf6,
0xf51af9fd,
0x16f5040d,
0x0ff2fddf,
0xfb0cfbfc,
0x00fe02fa,
0xefe0e5f0,
0xf7fb0104,
0xff09f0f5,
0xf2deeef5,
0xfb1ad7e9,
0xeff9fae3,
0xe0fb00f2,
0xeff805f9,
0x0c1bdff0,
0x11f8f1fe,
0xc2f2fbf3,
0xf2f7fbf2,
0x0d23d4ef,
0xec090007,
0xd70beaf1,
0x000a0304,
0x05120ff6,
0x02eaf9ed,
0xef050b07,
0x000eeffb,
0x0d160f06,
0x0f02f807,
0x030d0006,
0xed15eeef,
0x06041606,
0x2203e804,
0x16f5ed0f,
0x0013f2e8,
0x1cfb0afb,
0x2bf11503,
0x030c03f5,
0xf81aeaf9,
0x22e9d107,
0x0a07f618,
0x08eef9e8,
0xee2213fc,
0xfcf5f213,
0x05f1faff,
0xec0ffbf7,
0x0bfef3eb,
0xfffae7f6,
0xf30dfd06,
0xe5111312,
0x120ee9f6,
0x0814d40e,
0x1e00ef16,
0xcbf9fa04,
0x13f8ec10,
0xc6e2f5f3,
0xc915ebf2,
0xfd0700fd,
0x12f513fc,
0xdfc43604,
0xf2fd0f06,
0x7c0903ed,
0x1339f607,
0xc9e8cffa,
0xd009f033,
0xede9ec11,
0xfa35fff8,
0xcee9ede9,
0xd6e8ef27,
0xf0ed00fd,
0x01fa0ded,
0xe2f3c2ef,
0xeff602e5,
0xd00cf613,
0xf6c8020c,
0xb6ed3f13,
0x0201e9ab,
0x4def1104,
0xf4c7eb11,
0x663a6517,
0x7b13160d,
0x71eff9ed,
0xfa3ef0f3,
0xe2efc001,
0xd7f3eb11,
0x1009f708,
0xf911f5f5,
0x08321308,
0x09fae812,
0x21f0eaf5,
0xf6f000f7,
0xcfd4f307,
0xb4f6f8f5,
0x01020a04,
0xf7eeed0e,
0x347f7a11,
0x06fdfbd8,
0x36f61415,
0x0101fe13,
0x1deb18f0,
0x34e902ea,
0x31fff9f0,
0x10f0f700,
0xf1f20ded,
0xec03f6ef,
0x161611f8,
0xeed501f0,
0x001ae70f,
0xf9e910e2,
0x0500eee7,
0xeaee0313,
0x1432f5f7,
0xfafaf92b,
0xe6ebf005,
0x0c2c0c06,
0x4673eef1,
0x1802f81a,
0xaa0314f7,
0xfe3313f4,
0x525a08f0,
0x14fc04f8,
0xe7f6eeeb,
0x120cf0f0,
0x514ae714,
0xf41503fc,
0xde001305,
0xf22612ed,
0x05deec01,
0xe509fdde,
0xf70503f6,
0xfddefb00,
0x0211e318,
0xff191902,
0xe1f7f21b,
0x18130f05,
0x0cefb4fb,
0xe3fd12ea,
0xb303110a,
0x1bee1618,
0x0503bc02,
0xd2f90805,
0xcf121013,
0x10e10d1a,
0x0e0db41c,
0xdb090cfc,
0x8113140e,
0x0ede0c05,
0x0220e50b,
0x020905fc,
0xb30d0704,
0xf8e90c0d,
0xdcf6bf05,
0xd20310f9,
0xc7f7fa15,
0xf5ee0c19,
0xebf3d305,
0xae0d0d0e,
0xf503fcf9,
0x0df50c06,
0xec08fb02,
0xe20a1905,
0x18f6ff05,
0x0808041a,
0xc9e3b407,
0x9a09f92a,
0xd9010316,
0x17270717,
0xd1e4f2f9,
0xdcf611ff,
0xf1000c00,
0xf8e81406,
0xf1f5f71c,
0xf91512f6,
0xed13011c,
0x1003100d,
0xd6d90e0d,
0xf405fae4,
0x03f80f06,
0xfb03f60b,
0x0200140d,
0x13101902,
0x0905f618,
0x110ef9fc,
0xe1eceaf6,
0xad0c030c,
0xe70efe1b,
0x19fa1112,
0xee14361b,
0x17000a14,
0x0bff0f0e,
0x121ff716,
0xfb04f408,
0xef09120b,
0x0e190619,
0x13ffff10,
0x011c2915,
0xff160705,
0x51f9160e,
0x0511fe1a,
0xf7de0c16,
0x0a0b1228,
0x29140102,
0x112c0cfe,
0xf7fbea09,
0xd704ff22,
0x31061007,
0x0ef0f910,
0x09122509,
0x300711ed,
0x270bfe0b,
0x030bff0b,
0x151ae0fb,
0xfafd1729,
0xe20c1913,
0x11230f06,
0x3312dcfd,
0x17111815,
0xae1bf8fa,
0xfefe1219,
0xf1e6f608,
0xfb13fae7,
0xc90b171c,
0xfff8fe08,
0x102611fd,
0xf313ffe1,
0x111b1101,
0x01f10315,
0x030618fb,
0x0a0904dd,
0x151907fa,
0x0bd50d14,
0xf409d0f7,
0xf7fff424,
0xca12f80c,
0xee0a07f7,
0xe0f0e5ee,
0xd3f4faf2,
0xcb11fcff,
0xf6e70eee,
0xdde81e09,
0x11070ef9,
0x2407f1f5,
0x0e0df4fe,
0x0d073ffa,
0x1ef70203,
0x5df8f0f0,
0xfe37f911,
0x1c002bf2,
0x1909f813,
0x4e080b0b,
0x08250711,
0xc7cec802,
0xb4f5fbdf,
0xdb01f5ef,
0x04cff4fb,
0xe2fb54f6,
0x030bfee6,
0x40fc0b09,
0xf1fbf4f6,
0xf9e235f7,
0x34f1122f,
0x58fd0312,
0x0a49f8f9,
0x2eef03fa,
0x1001ff01,
0x4302f4fb,
0x0d1e04f3,
0x1e1aeff1,
0xfd0bee0c,
0xe6f5f20c,
0x0f0901f9,
0xc9ed0ffb,
0xe409f313,
0x0df004fc,
0x0decf5f3,
0x4d553500,
0x6dfb0524,
0x1f08fbff,
0xf14807fa,
0x44261f0b,
0x2b0c0ff1,
0x14000bfc,
0x0a21faf6,
0x0a101b00,
0x0bf3040e,
0x0b0700fd,
0x0e0000fb,
0xd8f5df04,
0xe407f5ee,
0xe1f10606,
0x0f05fd0e,
0x1dfaf8fd,
0x28040138,
0xf4f7f800,
0x1137fa07,
0xdfc98310,
0xff0df80e,
0x81080900,
0x06e0f3fe,
0x07360108,
0x120407df,
0x8af00cf8,
0x03e00807,
0x1c24e60d,
0xef01f0e7,
0xb90309f9,
0x1100f6fd,
0x07fbd8f9,
0xe40a09e8,
0xcaf7f010,
0x06fff0fa,
0xfdf913f6,
0x20f50fda,
0x2b000904,
0x01e000fb,
0xb5b5e7f4,
0xce0eef1a,
0x0ef605f0,
0x0bf60ffc,
0xd7cfe605,
0xeb000a0d,
0xecf10f03,
0xefd60a0a,
0xbae6dcf9,
0xe610f804,
0xd4f60df4,
0xf1cd0c0f,
0xc8f7f8ef,
0xea040f0d,
0xe90ef4f6,
0xfafffd06,
0xeef9e20a,
0xe40e11fc,
0x040c0216,
0x0de60c13,
0xf528160c,
0x06f5faf7,
0xc8f8ff07,
0x14d90f0c,
0x1b237ff5,
0x3813f4fd,
0x0a0d190f,
0xfce304fd,
0xf1e5e2fc,
0xeaf90728,
0x0e15f801,
0xfe1607f9,
0xf0f2e50c,
0xe7f51403,
0x0afbf812,
0x0806fbf2,
0x1018eefb,
0x080e0119,
0xe8f90ff7,
0x0b14010b,
0x3a33ed10,
0xfd0b0b03,
0xba0c0e04,
0x02f4150d,
0x537635f9,
0x62f214c9,
0xcc0d10f3,
0xf7e3130e,
0x17ff0c05,
0xee100ce8,
0xd20cf3f4,
0x090106f9,
0xff080ffb,
0xedf8001d,
0xfe09f611,
0x1546f5f1,
0xff0dc6f8,
0xeaf701eb,
0xb5020a11,
0x02effc07,
0xc5cbd900,
0xd7f715c1,
0xbb0d0e09,
0xf7cf0610,
0xfc1ff30c,
0x11100bfe,
0xbd08f912,
0xfde11008,
0xf409cafb,
0xcbfcfa19,
0xa5170ef3,
0x06fb1409,
0xeaf209fe,
0xf1f8f3e4,
0xcd05f600,
0x07f7f712,
0xd7e9d710,
0xd9fb04fe,
0x08071301,
0x14eb010b,
0x0e0af90b,
0x09fe14fc,
0x13faf6f3,
0xfaf5f705,
0xdbd5f2fc,
0x031311fe,
0xed151112,
0x04f1f20a,
0xbdc8d906,
0xc715fa0f,
0xed140afb,
0xfdf3f6fd,
0xe8ee2afd,
0xf20f14fc,
0x230f0af8,
0xf9121005,
0xf4f11e12,
0xfff20806,
0x1efa0ff2,
0x030609f8,
0xf4d20a16,
0xedf206e0,
0x5205110f,
0x02030111,
0xcfcf2c14,
0x0114fe02,
0x3a15f2fe,
0xf7f509f3,
0xedf207fe,
0xf2030811,
0x22fc08f7,
0x0a161313,
0xfb0a2212,
0x1e0afd14,
0x31fa0df2,
0xf30ffbfa,
0x1a07b302,
0x000d151f,
0xbffb1318,
0x0cf807f8,
0x0126f80e,
0xeb180601,
0xad18100e,
0xfa00fbf6,
0x28111dfc,
0x110c0fe4,
0x2cf9f717,
0xfb0af5f6,
0x17f9e8f6,
0x0a05f202,
0x3012f3fe,
0x0543fd00,
0x13fd02f2,
0xfd02090b,
0xeefb1017,
0xf41f1303,
0xb3bc9ef8,
0xc1fc15ec,
0xad1401fa,
0xfef31a15,
0x959d190d,
0xdef602eb,
0x28080a0c,
0x03fcf604,
0xf7e958f5,
0x42131424,
0x7f040700,
0x0c3f0400,
0xfbddb613,
0xcb021036,
0x07051211,
0x184e0012,
0xf8fdd6f6,
0xdf12fa1e,
0xc3faf217,
0xf11cfcf4,
0xe8e4e617,
0xecf6f542,
0xdb081309,
0xff071203,
0x335f38fb,
0x5dff0237,
0x1a0a1816,
0xfc41f7ff,
0x7f6a4ff5,
0x6cf5f52b,
0x1d06f4f8,
0xfe54010c,
0x05ded9fd,
0xcb010506,
0xdeff16ff,
0xf912f616,
0xced7e60e,
0xebf21711,
0xed09f00a,
0xf7fff902,
0xe6b5e110,
0x0c11133f,
0x1f06100b,
0xf238fefb,
0xc7c6b613,
0x0004f4d9,
0xb10e04f6,
0xfcd9f501,
0xf6090f0b,
0x27fbf8cb,
0xaa130202,
0x07cd07f7,
0xe8130d15,
0xe5fcfbf7,
0x0c1418fe,
0x15010709,
0x1a0a10ff,
0xeb111711,
0x18f31303,
0x0327f3f9,
0x1d1b21ff,
0x2b10191e,
0x2f00f5f4,
0xfe050a00,
0x08d7d8f5,
0xef17fd29,
0xf401fc0f,
0x1016f4fe,
0xee28da00,
0xf80c13ed,
0xcef302f7,
0x12cf010f,
0x1f320114,
0x0df312f0,
0xe3fdf40a,
0xf9d3080b,
0xef110404,
0x0212fafa,
0xec0afefe,
0x04e90f00,
0x05002210,
0x2904ef17,
0x0bfaefed,
0xff26ef08,
0x13f222f1,
0x0e1013f5,
0x3dfdf0fe,
0xf01402fc,
0xf9dde3f9,
0xd4090a0d,
0x43f4f7ff,
0x0f360aff,
0xffed25fc,
0x14e8fff1,
0x5ff3fc06,
0x0c30f9f2,
0xf4eddee9,
0x1110030a,
0x1004fcf5,
0x0a42f8ef,
0xfce9030b,
0x0410fed7,
0xff051803,
0xf9d6ecf1,
0xcccb09ea,
0x2ef8e9e8,
0x0aecf810,
0xfef5fd14,
0xcdda3211,
0xf1ee0001,
0x3206040d,
0xfd1208fd,
0x1bf92fef,
0x2afd0015,
0x7ffdfdfa,
0x04311101,
0xdec6cbf6,
0xe710f12e,
0xec08f906,
0x120013f9,
0x020345f9,
0xf709100f,
0x4cfa0d05,
0x051200f8,
0x231409fe,
0xe6f4f92b,
0x21ee13ef,
0x0b3e09eb,
0xfbdf1ffb,
0x010108e8,
0x3df502f1,
0x06ecf30f,
0x4d2e38f8,
0x7eeafd12,
0x53fc120b,
0x10201306,
0x0b04f914,
0xec0fff43,
0x110c0707,
0x0a540e01,
0x1205cc0a,
0x0ff709eb,
0xbfff1207,
0x0e0717e9,
0xfb07ef0b,
0xcb0ef2f9,
0xba0713f9,
0xf7e81314,
0x2f3f2106,
0x0b07ee0f,
0xc802050b,
0x12110d01,
0x513a0e0e,
0x26fff0ed,
0xd7100aeb,
0x0af00a0f,
0xf507cf02,
0xe1ed14f2,
0xb8efebf8,
0x02edeb0f,
0xd8d0c811,
0xc20c0bf8,
0xec0904f3,
0xf0e700f6,
0xd514bcf8,
0xd2ee0924,
0xd700e8f0,
0x1009f511,
0xf613dafb,
0x1d0df0ed,
0x8df80114,
0x0ced02ea,
0xc9d6ed06,
0xee000afc,
0xcb041301,
0x08d3f0fe,
0xd5efddf1,
0xd2f7080a,
0xeffb01ee,
0x0be805ef,
0xe2e0e1e8,
0xd9ebebef,
0xf5eefe05,
0xece80306,
0x01081cf2,
0xfae3fce2,
0x24fcf104,
0xf2d1e40b,
0xf9327f02,
0x4af5de18,
0x2dfcfe01,
0xe1190d05,
0x12144be0,
0x1f07e513,
0x78e1f1fa,
0x0440f3f7,
0xeae212f3,
0xeaffef00,
0x4e0a0ee9,
0xeff8f105,
0xd9f321f2,
0xf2f6f010,
0x43e70fe2,
0xec1002e1,
0xef1847e5,
0x4ff6f91c,
0x4cffecef,
0xf237f20a,
0x1eedbe01,
0x170101e2,
0xed0bf6ee,
0xe6f4f0fd,
0x38291205,
0x58eff1c8,
0x07de0b06,
0xfac7eae0,
0x35230301,
0x1305eefd,
0x0deb06f5,
0x060dfce9,
0x272f3bfe,
0x2003ff0a,
0x49e8f5f2,
0xfc360ce2,
0x6645fc0b,
0x49ff025f,
0xf1e0e30b,
0xe326f8fb,
0xe3f799f7,
0xc40aeddb,
0xc801e8ec,
0x00f0fdfe,
0x2b0b26fc,
0x23e509e8,
0x2106feeb,
0xf4dbfc07,
0xf3c9e1ed,
0xf4050bf3,
0xd6f3f501,
0xf4f60304,
0x23102ff0,
0x4aeafb0a,
0x02e4fde1,
0x0a0708fb,
0xc88489e7,
0xfef4070e,
0xa3eee702,
0x0cd6faf2,
0xc2e2c6f6,
0xdfeaebc7,
0xc6e3fae4,
0xe8ac08f7,
0x36fe45ed,
0x26eafa04,
0x15e4eaf2,
0x0918dee3,
0xdfb7e308,
0xe4f1e324,
0x0ce3eb02,
0xfc1e09e6,
0x281ffeea,
0x28def1db,
0xfe080afa,
0x00bee3f0,
0xe2b621fa,
0xf70407fa,
0x58f3fbf5,
0xf6f200e6,
0x0a2d0af4,
0x12e3ea03,
0x26f0f7e8,
0xfcfeece2,
0x0eef2de7,
0x1bf8f4f1,
0x0bf9e907,
0x02fef2ef,
0x1609e8df,
0x09e40a15,
0xfa04f2e7,
0xf320070c,
0x0708e4f6,
0xecf70efd,
0x03f21013,
0xf5faf717,
0x04e10ef8,
0x1cf10903,
0xedf30cf2,
0x16f801f8,
0x1220e6f6,
0xfe0e0a10,
0xca05060f,
0x10f71309,
0x0d3a160b,
0xedf9ffe2,
0xee031601,
0x04d5fe09,
0x42396614,
0x390117df,
0x330c1011,
0x13e716f2,
0xe5eb11ff,
0xe609fedd,
0x2100110d,
0xfee9f208,
0x343eedf3,
0x28040c19,
0xe80f00fd,
0x053907fb,
0xcfd19505,
0xe7f80ee5,
0x83fcf4f4,
0xf7dd0ffd,
0x061ec40d,
0xfbf5f4c6,
0xa402f917,
0xfcb70310,
0x3b72e2f2,
0x31f907c0,
0xe0f3fefa,
0xf3d616fc,
0xfcf11dfc,
0x2bf11827,
0x05fc02f2,
0x061800f6,
0x0608a00f,
0x0e10f5fc,
0x8c010603,
0x0208f9f8,
0xdbfd1df9,
0xa0f9fbea,
0xbaf30802,
0x14e0fe03,
0xd2d6100c,
0xc106000a,
0xfff409f4,
0x12f6150f,
0xb9d6050d,
0xd10b06aa,
0x25f1f8fa,
0x04b10311,
0x00d1fc14,
0x40040334,
0x23001217,
0x0924fdf3,
0xa48c8d16,
0xf2f50af2,
0x9df40200,
0x0dba14fd,
0xe84d2515,
0x1bf11208,
0xc5f50e10,
0xf6f91508,
0x172633f5,
0xd91000ef,
0x270c18f9,
0x0508fdf6,
0x190f4215,
0x15fa0b06,
0x60180607,
0x1631f513,
0x1d0d1909,
0x1f060106,
0x17f40200,
0xfcd40905,
0xae81ca12,
0xa70dff0d,
0x10100700,
0x06c11207,
0x98b8cdf0,
0xd203f6e3,
0xfa1300f2,
0x09a6f600,
0x121e4604,
0x24fef6db,
0x2c0df817,
0x15cc040c,
0x493018fd,
0x3d140feb,
0x2802f711,
0xf41a1914,
0xfbfe270c,
0x12f7f909,
0x210c10f8,
0x0b0afff9,
0xf4f9e4ff,
0x0bfbfe23,
0x0cfb09f6,
0x031a0e00,
0xf0d8810c,
0xce06f7ff,
0xc4fa0109,
0x02d90d01,
0x0116f806,
0xfe0ffada,
0xb50ff600,
0xfeb80005,
0x232543f9,
0x32040efa,
0x0cf7fcff,
0x09faf700,
0x2d2c0501,
0x1ef8f907,
0xe1f704fc,
0x021302f8,
0x11080b0a,
0xff10faf5,
0xff02fb07,
0x0b040500,
0xebe7fa0a,
0xda06091c,
0x141008fb,
0x060e0303,
0xee12c90a,
0xce0a0b1a,
0xe50efc09,
0xfaef0ffd,
0x295418fe,
0x2c04fcec,
0xe1f8fffe,
0x0baf0cff,
0xdcd3bf01,
0xf301000c,
0xb90903fa,
0xfada0200,
0xdcf4d9fa,
0x0ef806e2,
0xbcfbf900,
0xfeccfc0a,
0x17080f06,
0x01000cf4,
0xdeffff08,
0xfd0403fc,
0xc5d8f003,
0xcafdfa09,
0xe7f8f507,
0x0ef203fa,
0xf4fe14f9,
0x0b1104ce,
0x180404fa,
0xf9cd0107,
0xd5c6ed08,
0xf00010f7,
0x150bfd0e,
0xfbfe06ff,
0xddee0401,
0xf6080ceb,
0x1ffc090d,
0x02e500fe,
0x0df5fe05,
0x0c0cf80c,
0x2df80cf7,
0x040ffdff,
0xfd0ae310,
0xef08fbf0,
0x110510fd,
0x02f60c0d,
0x0114f7f7,
0x0b0911fd,
0x11010310,
0x031202fe,
0xfd0601fe,
0x11fa11ff,
0x0cf7fa05,
0x000210f9,
0x131b20fc,
0x1d070f00,
0x02040009,
0x02000e03,
0x09f91602,
0x06f7f919,
0x2b11010d,
0x0e180205,
0x0e16f8f9,
0xf7fb081c,
0x09080801,
0x0f17ff05,
0xf8030c0e,
0x0a0909fb,
0xfdf905fe,
0x02010408,
0x2e2142f3,
0x1eebfbf7,
0x40ebebfc,
0x02fbf7f9,
0x230e2403,
0x5002fc2f,
0x22fb06f9,
0xee2a11ec,
0x0df2adec,
0xcd120d14,
0xdafd0d10,
0x0e1d09fa,
0x07ed41fc,
0x00f703ea,
0x41fb04f9,
0xfffaf802,
0x01ee0d07,
0x13fe0a06,
0x32f2f104,
0xf135f7fd,
0x03fd070b,
0x37f9ffc9,
0xe80debf5,
0xeecefdf9,
0xf9f499ff,
0x1809f407,
0x8ff6f7ff,
0xf4d1000e,
0x93b1ee10,
0xb2ed02f5,
0xca100501,
0xfbe7f5fd,
0x13271fef,
0x2c060307,
0x2f031009,
0xfd3ffc10,
0xf8ecc50d,
0xe401022d,
0xd909ef07,
0x0b21fa11,
0xfad4e410,
0x2406f7f1,
0xd0fdff06,
0x05c309fb,
0xaabcf207,
0xdeed09c7,
0x060cf40d,
0x0ebaf70c,
0xec087af7,
0x1d0b081c,
0x56eaf9f3,
0xee1af00b,
0xf4fff5fb,
0x2bff021f,
0x22ef08ea,
0xf91811f8,
0x10f7feed,
0xe90e0cf5,
0x1a05effc,
0x03d70ff3,
0xe8b8cbf1,
0xf005090d,
0xfdf7f3fd,
0xf8f0f803,
0xdb1dfcf5,
0xeaf800d7,
0xd212f6f6,
0xfbc8060b,
0x3f4246f0,
0x52fced03,
0xf5f6f8ff,
0x1000f003,
0x14311bf7,
0xf61309e8,
0x3a0efa08,
0xf1c8ee0f,
0x35343106,
0x340bf4f1,
0x56fbf3fe,
0x0dbf0201,
0xfbecd70c,
0xd910071d,
0xe7f2edef,
0x09fbf6f7,
0xd9d6abf5,
0x9402f3ff,
0xc2fcf101,
0xfaeaf108,
0xe712e9fe,
0xf5ebebe6,
0xd0ea00f3,
0x0cd00704,
0x677f27f0,
0x33f2fbf0,
0x00f7010f,
0xfb04fb05,
0x423903f0,
0x15fe0eca,
0x1d10effb,
0x05e8f202,
0xeff90b0e,
0x0b10f906,
0x10110cfa,
0xf6f2edf9,
0xe7f5f2ec,
0xe314f2f3,
0x10e9fafe,
0x10fff613,
0xd7eb0c0a,
0xc8e7efee,
0x20f4f6ef,
0xfaf1ee07,
0xb8b42714,
0xfef50b0f,
0x76fa00eb,
0x0018e402,
0xd4d5edfd,
0xf0f9f309,
0x08f8ef12,
0xeb0c050b,
0x11f835ef,
0x0e0aee12,
0x4ef60b14,
0x07e1f10e,
0x1d03ebff,
0x1eeaf60b,
0xf10d050a,
0xf0030aea,
0x1f29490b,
0xeff5ed02,
0x30eff2ec,
0xf2ea0fee,
0x36296eeb,
0x5c040af5,
0x7f0302ec,
0xea5500ff,
0xeab801f3,
0xe50a063a,
0x52f2eff5,
0x076dff0a,
0x2b310aed,
0x1dedf0f4,
0x3206e909,
0x1500ffee,
0xecb2e4f2,
0xc70e0005,
0x1dff14ee,
0x07fef9eb,
0xc9e71905,
0x06fdeee7,
0x1303f4ef,
0x0fd203e8,
0x39511e03,
0x550e11de,
0xf5fef10d,
0x0a021513,
0x21160cf4,
0x0f10fd0e,
0xcff304f3,
0x0c1dea0e,
0x3236dbf2,
0xe5f20fe7,
0xc7f0f204,
0x02df0efb,
0x31412d07,
0xd2edff2c,
0xf30e0311,
0xfa25fc07,
0x3510f504,
0xfdf00c18,
0xb6f0fc10,
0x0520f109,
0xebe5c7fd,
0xd90413e3,
0xa401fbe9,
0x03cdebe9,
0xde26edfe,
0xf60af8ec,
0xb703e9fa,
0xf6a6eb11,
0xabb4ccfe,
0xc5f602fc,
0x0113fdee,
0xecf6fa0b,
0xf5f0e8fb,
0xd2ef05f3,
0xd6f204e8,
0xf006e9ea,
0xe1d40bf5,
0xe40205f5,
0xdafcf6fb,
0xfe1d0def,
0xaabcf4f0,
0xd804041a,
0xff0f04f0,
0xf50af4f8,
0xdfde0c10,
0xf713f71d,
0x1a03fef8,
0x0808fd07,
0x020714f1,
0x00deeee6,
0x08dfe5ef,
0xf8e5f5ff,
0x18195af8,
0x49e905e6,
0x260dfc06,
0xecf2dee0,
0x551a6007,
0x4df10e03,
0x3af800f5,
0x053af4ea,
0xff14b4e1,
0xe203ed0e,
0xc4e8f907,
0xe84207f2,
0xefeea5fb,
0x9ef200e9,
0x840706ef,
0xe7f7e20d,
0xfa0952e8,
0x28e8e51f,
0x4fdd05f7,
0xf928f3f4,
0x12f3dde2,
0x15e70110,
0x3df3fde5,
0xe6f6df03,
0xe0afd301,
0xf104fedf,
0x050bf4e0,
0x07f8f607,
0x8185d5fb,
0xc700f8ee,
0x15e8fb01,
0xe9e4e3e3,
0x98a3fdff,
0xb5dfe708,
0x12e8e101,
0xe10af4e5,
0x2f13f8fc,
0x3cf404cf,
0x1df40008,
0xf401fdff,
0x0b0553e4,
0x03e2f3ee,
0x65f8fd0b,
0xfcf3f8eb,
0x211d2ef6,
0x45fa0e1a,
0x7a0604ff,
0xe249fde9,
0x221705f2,
0x0bddff0e,
0x48f4ea02,
0x0519fe09,
0x1bf5e9ee,
0x2fe7dd1d,
0x330c05ef,
0x0135f9f8,
0xed0a1607,
0xfae2decd,
0x1fddfe00,
0xdfdef3e6,
0x5b5051fc,
0x470ade12,
0x39e0ecfa,
0x0e31f302,
0xebefeaef,
0x23ea0cd1,
0x06f5f203,
0xe3d800e1,
0x19f72cf0,
0x220e02e1,
0x4704fd03,
0x06070d07,
0x02ca0103,
0x1cfbff0f,
0x47f405f3,
0xe715e8e2,
0x2921db09,
0x100a02ec,
0xcf0de7eb,
0xe912e5eb,
0x19fbf4f2,
0x17dfffe9,
0xd1e8ffdd,
0xe9fdfcf5,
0x2f48dfea,
0x00f902d8,
0xc9ecfee5,
0xe9e9faf2,
0x4a4d0feb,
0x45f204be,
0x0befe603,
0xf4f80805,
0x2108dc08,
0xeef605d0,
0x0c07f0ec,
0xfef610e8,
0xd6c0c7f6,
0xe3f9fc03,
0xe4f30b06,
0x0cebeaf6,
0xddef01fd,
0xf9f3ecf3,
0x4a03150a,
0xeae5e5f2,
0xfddc0ff0,
0x2c040c21,
0x5beb1410,
0xe8211603,
0xea083602,
0x2003fc1b,
0x7d01f0ec,
0xfe5b0ff7,
0x26140605,
0x1712ee1f,
0x4f04e80f,
0x0626f1ed,
0xfcfb3315,
0xd717fb08,
0x57fa090e,
0xfc0bf412,
0x231e38e7,
0x22e9f937,
0x51130dee,
0x025b05f6,
0x05d9d2e7,
0xe309182b,
0x0df802fe,
0xfe12ff15,
0x04db14f5,
0x2d0b12d7,
0x2801070b,
0x12fcfe12,
0xf8f90fee,
0x05170cf4,
0xfd13ef15,
0x0aef0507,
0x242d43ed,
0x1c110a09,
0x47fbec00,
0x112f140b,
0x50340deb,
0x1cf4fe34,
0x2c1802ef,
0x0231fd11,
0xf8f5d5f0,
0xbc011714,
0xfce90315,
0xf100fcf9,
0xeff8e0e8,
0xf60a00ec,
0xdd03f8f9,
0x1323f70d,
0xd1eac9f2,
0xd9f1f3fb,
0xe208eb0c,
0xea0bf5eb,
0x140908fd,
0xfefb03e3,
0xd30414f5,
0xfdeb0beb,
0x1a20c402,
0xd50f0319,
0xc20d0608,
0x1015140c,
0x0226de03,
0xeef3ee01,
0x810dea05,
0xecd9f713,
0xedc11df6,
0xef01ffed,
0xad0be8f0,
0xf3dff601,
0xb4f012f3,
0xfefa0810,
0xd4120ee8,
0xeffcfdf8,
0xfae20eeb,
0xfe15fdfa,
0x030709fd,
0x04fe0d04,
0xaee0ed14,
0xe2f10416,
0x0208f702,
0xe8fa0fec,
0xaac50215,
0xaeefe7fb,
0xd7f30d04,
0xfcea1516,
0xf8e72517,
0x08f8fd0e,
0x0004f0ea,
0x100d11f2,
0x011a0201,
0x18e8ff35,
0x1a0b0fe9,
0x01581210,
0x184336e1,
0x2a080a2f,
0x27d902f3,
0xe7ebe6ff,
0x5f5629e1,
0x3bf9e315,
0x0307e6e4,
0x040108e9,
0x11343a01,
0x3c01df0f,
0x45120df7,
0x014eef13,
0xf4c44c0b,
0xf6fbf8ec,
0x7fe1f503,
0xdc4afbe0,
0xde95a703,
0xd40ada16,
0xeededcec,
0xe636dedf,
0xfed7f6ff,
0x1106dbba,
0xd80ae0e1,
0x1386f7f4,
0xcdc7c607,
0x28f4e2ea,
0x810beade,
0x00bff5f7,
0xcedf0906,
0xfdece7eb,
0x10e213e1,
0xf0e1f6ee,
0x1a0a4a0f,
0x1fe2e2f3,
0x6ad8e701,
0xe754f0e8,
0xdebba9e6,
0xc403f93b,
0xfff7e6f7,
0xf66ee0e4,
0xc3d61f01,
0x11f0e4cd,
0x0aeff6f7,
0xf7da070c,
0xcaaa6af4,
0x00d6d617,
0x63fbe503,
0x08f8e0ee,
0xcaaf60e2,
0x370f012f,
0x780706ed,
0x0e3007ec,
0x3c313112,
0x5c07111e,
0x7ddeece6,
0x0b2912e3,
0xf2e51ae2,
0x1ae6eb1f,
0x28fbf40b,
0xf729ec0d,
0xfff605e4,
0x1be1ff0c,
0xf6dfd911,
0xed160508,
0x1c0cfd00,
0x2508ed09,
0xe90a0708,
0xecf0dc10,
0x2b2e27f0,
0x42e0dc05,
0xf5eb0f0d,
0x01ed0110,
0x576e5010,
0x7705ded9,
0x500016fe,
0xf2f6e210,
0x5e3607f9,
0x360400d2,
0x0e07ff10,
0xfdee02ef,
0x0cf4d6f5,
0x0b00ebfb,
0xfbda0cfe,
0x04ffe509,
0xf7c992d8,
0xb9d7100c,
0xdad6dc12,
0xdccb0f14,
0x2f60beec,
0x22ece6d2,
0xb1db0cee,
0xdff4fc04,
0x5548eee9,
0x1aeddcb7,
0xd8da0ef4,
0xefc2f9eb,
0x0bf5f2fc,
0xe009dcb8,
0xe0dc050d,
0xf8d7fffd,
0xf5e600f6,
0xf1e1dff0,
0x01fd01f5,
0xe506e7f7,
0x18e4eff9,
0x12fbeeee,
0x13f4e2e7,
0xf110e800,
0xfd14a6e0,
0xfcf50208,
0xccf80adf,
0x0e020e02,
0x04290ce1,
0x08e0f4e6,
0xd903e7e9,
0x08fbf402,
0x0bf900f7,
0xe4e40a04,
0xd8ff0de7,
0x08f20104,
0xeb0413f0,
0x0de408f4,
0x0afb0de3,
0xfcee0806,
0xf8d11106,
0x0803f91f,
0x31030aed,
0x0614ff08,
0xa1b381ea,
0xb102fd25,
0xbd0209e1,
0x0cf7e103,
0xe3e6e5f3,
0x03f2e9d8,
0xc9de0d03,
0x0dddf504,
0xfae900e5,
0x04e4f6f3,
0x1a080df5,
0x03d2e6fc,
0xedf744f9,
0x0efdea12,
0x5901fded,
0x0a09fbe2,
0x020f48fc,
0x26f00c0f,
0x32e3ee05,
0x05f0fb09,
0xc9aec8e8,
0xeafb0c16,
0x27f2f209,
0xfe15f60b,
0xee05220a,
0x0a05fc0e,
0x4fe1ece8,
0xf20cf509,
0x1afd07f0,
0x3809e7f4,
0x29f8e6e7,
0xe1ecf406,
0x2a265df9,
0x0cf8f5db,
0x28e1edf9,
0x0b16f9fd,
0x24ea2fe6,
0x21eff114,
0x3afc0104,
0xf4fee5f2,
0xf4e1000d,
0xf1f2f1fd,
0x37fae806,
0xf8f90c09,
0x302430ea,
0x28e30cee,
0x48ea09f9,
0x070af505,
0xfcf0060b,
0x09e7eced,
0x3e0e0fe3,
0x08ff02e8,
0x2043e708,
0x1bee06f5,
0xb3f4f3e7,
0x010be7fe,
0x3e00ede3,
0x0bf4f0f1,
0xdeeff7e8,
0xf205f1f7,
0x3a4aeae4,
0x03e3ead7,
0xd904e1e7,
0x0dfe0702,
0x434d1104,
0x270bedee,
0x09020c05,
0xeae6fdfe,
0x4227e8f8,
0x15e00dfd,
0xeaeafafb,
0x05fb0308,
0x00ee3af7,
0x01040707,
0x22fbeeff,
0xf00bf4f1,
0xf1cdddea,
0xf0ecf41a,
0x2b04f504,
0x0b2703f8,
0xded38101,
0xbe0af01c,
0xd6f109fd,
0x05fcfb06,
0xff060af4,
0x03f1efe2,
0xb8f9fff9,
0x00d00d0a,
0x1c1534e9,
0x0208f2f7,
0x090af204,
0xfcd7fc06,
0x1a2d0bef,
0x130209ff,
0x17fceff6,
0xf612edf4,
0xf0f62e09,
0x0c00eb01,
0x32f705fa,
0x0132ef07,
0xcfc5f2ef,
0xb0f3f823,
0x16f4eefa,
0xf629faee,
0xc4e3ecf5,
0x01fffdf9,
0xeaf5f1fa,
0x05dfe903,
0x0c352a0a,
0x30eeeed5,
0x2402fafa,
0xecaaf0ee,
0x0cfb0df9,
0x00f3f3ff,
0x1cfefdf4,
0xf4fffcfc,
0x12340ef0,
0x2800f8fe,
0x24f6fe07,
0x00f9fe01,
0xfbf0e60a,
0x0701fcef,
0x07f5f8f4,
0x0a0f00ff,
0xe7f91dfb,
0xf2ecf2ec,
0x37f2fa04,
0xed02f40b,
0x1c0efeed,
0x2aeb01ea,
0x40eaffed,
0xf20dedee,
0x112444f9,
0x200b08f1,
0x1cf4fcfb,
0xf40af806,
0x00042905,
0x0cfc090a,
0x220bfdeb,
0xf10a0a05,
0x12fe0ded,
0x1507f3f6,
0x36faffeb,
0xfbf8f70b,
0x37230103,
0x34f200e8,
0x00effe0b,
0xf327fcee,
0xffdfd9f1,
0xfc0a09fa,
0xdc0bee0b,
0xfafa0208,
0xf511f000,
0x0008f0f2,
0xe0f6f100,
0x01dd05fc,
0x31222c04,
0x240b03e9,
0xe7faec02,
0xfdfdf9f4,
0x38250ceb,
0x14ed05f8,
0x0a0cfeeb,
0x010cf5ff,
0x110bf2f7,
0xf3faf304,
0xdff6fdfb,
0xf1020103,
0xf6ef04fb,
0xe3fffffd,
0xdc02f8fa,
0x0bfff701,
0xe9dddcf6,
0xf00107e0,
0xe601f002,
0x07daf3fd,
0xe60b2a01,
0xfaf7f3de,
0x14f904f7,
0x06e3f50a,
0x261f7ff8,
0x54fd0513,
0x36ef0bfd,
0xf01efef7,
0xfdfdf7fa,
0xf5f0f60c,
0x2bf7fa07,
0xf41deef2,
0x05f5f102,
0xe3fbfefc,
0xfafdfbee,
0xf5fd0704,
0x05003403,
0xfc09fd17,
0x56effffa,
0xf32f06f4,
0x1f342503,
0x310a0904,
0x3b040af9,
0x012105f3,
0x2d01d308,
0x280506db,
0xebfcf4f8,
0x01edf1f7,
0x03f4f000,
0x18fbeed8,
0xeffe0806,
0x08d8fefe,
0x14090507,
0x05f0f5f1,
0x0f000608,
0x0116eff7,
0x2b3b15fe,
0x0d0601f6,
0xfff8f401,
0xee1a0904,
0x3b223109,
0x12f7080e,
0x0efc09fd,
0xf804fa06,
0x1115d5ff,
0xe0f7f211,
0xff03fefc,
0x0803f5f9,
0x1718ec00,
0xeeeef102,
0xd108f806,
0xfd0202fd,
0x04ebf6fc,
0x07f1fafa,
0xd2f9fdef,
0x07f2f0ff,
0xfe0402f2,
0x0defff00,
0x0cf9fbfe,
0x08edf2f7,
0x12fbe602,
0x1c080a03,
0xdbf602f8,
0xff05fff3,
0xd0e0d1f1,
0xea0809e1,
0xd1f30001,
0xf4d10800,
0xd7d80408,
0xff03fb04,
0xdbf4f6f7,
0xeff5f8f6,
0xe6ddf5f0,
0xe7f9050e,
0xf5eef105,
0xfc1803f0,
0xfe192bfa,
0x0ef6fce8,
0x0efb08f9,
0x000bfff6,
0xfcd941f6,
0x11fcf60c,
0x48f1f005,
0x09f9f9f7,
0xea031bf9,
0xf7fcfbfc,
0x1cfd09f9,
0xff110700,
0xe9f319ef,
0x1d01fd01,
0x0bf4f703,
0xedf7f103,
0xfdfc02f7,
0xf9fa0712,
0x160af205,
0xf121030a,
0xe209110c,
0xe7e7f2fc,
0x03f6eaf6,
0xf11e0502,
0x0ffd07e5,
0x05020c08,
0x16e1030b,
0x0a30f602,
0x06129eec,
0x06f7fb20,
0xf6f5f1f4,
0xea0cfff7,
0x1f18280d,
0x0beafad6,
0xf2fafc03,
0x07efe6e4,
0x130c3b0f,
0x1a0d0de8,
0x33020af9,
0xe30707e6,
0xdbe0fdea,
0xec00ead8,
0x0504f8ee,
0x01fbebe6,
0xbead24ea,
0xe3fffe0f,
0x54fc0efc,
0x0437e601,
0x9687810f,
0x95030422,
0xea0e0d04,
0x0efbebfc,
0xd806e4ea,
0xe9070ce8,
0xcce5f404,
0x0bd0ebea,
0x09492be3,
0x14ecfcb9,
0xdee6ea0e,
0xfb95f4ee,
0xf6ed690a,
0x01e90138,
0x7efffbf8,
0xff3a0fe6,
0x2e4a060d,
0x13f8f255,
0x1d03f5e2,
0xe4370003,
0xe7b295f1,
0xccf3edf7,
0xe508f4e3,
0xe9210910,
0xbac730fe,
0xfb0df6e5,
0x3503ed02,
0x0bfbe608,
0x030718e9,
0xff05f3fd,
0x19f8fb07,
0x03e210ed,
0x36025811,
0x530b090b,
0x4ae8f3f0,
0x102c0bed,
0xf1bff1e8,
0xeee403fc,
0x09050eeb,
0xfde308ef,
0xf5fb1afa,
0xdd01f2fc,
0x33ff02eb,
0x1211f50f,
0x0a1a23eb,
0x18f2e5e3,
0x400305f6,
0xe321ed00,
0xf3ffe309,
0x04031119,
0xf8f7fbe1,
0x0afe0cfb,
0x234708ff,
0x16f600fb,
0xd9050fe2,
0x0ff10af7,
0x3834f602,
0x0cf3fcf9,
0xcff6f2f0,
0xfe11e90c,
0x4737faf6,
0x03fee7f6,
0x05e2050f,
0x081eeef4,
0x3d2a14e6,
0x25020e0c,
0xe9ffeaff,
0xffe400ea,
0x16260810,
0xeae1f903,
0xd200eeef,
0xfd29e407,
0x131e16fc,
0x15f6131e,
0x0910f4fa,
0x071b1012,
0x2718d80c,
0x14fb0e11,
0xa1fe0b10,
0xfa181a12,
0x1b10fb02,
0xe51318fa,
0xeb1617fa,
0xf8e1fd04,
0xf4f0e106,
0xe0050a02,
0xd6070602,
0x06f60200,
0x040c05f7,
0xf80211f4,
0xde0008f8,
0xfc1106fe,
0x07e49b0b,
0xf7010cda,
0x8111f513,
0xf9d3f804,
0xc1d8c613,
0xdd0414d6,
0xab01f7f7,
0x11b2fe0d,
0x08234cfd,
0x31f905ff,
0x130bfeff,
0xf90d1111,
0x0728e914,
0xcbf70313,
0xeefd00fb,
0x1222130b,
0xf7faf009,
0xf9f70110,
0xd10ffdf7,
0x111004fa,
0xcbe6b7f4,
0xd60707f2,
0xb602fbf8,
0x07cd0ff6,
0xd4cffe17,
0xf61211e0,
0xe2f8fd17,
0x120b070b,
0x1c042110,
0x300305fb,
0xeb0e0dff,
0x07f601f5,
0xdff8fc06,
0xd5fa0911,
0xfd0a0903,
0x0ee8180c,
0x0d141305,
0xff16f911,
0x2e0113fb,
0xf202fe0c,
0xf2c9ddfa,
0xeb06011f,
0xfd03ff0a,
0x020104f4,
0xc7dbf307,
0x0318f9ec,
0xf8ff1318,
0x14e6f600,
0x08ef3017,
0x1d1017e9,
0x1cf91607,
0x160a15fb,
0x1a12f114,
0xee0505fb,
0x250c0805,
0x070c0101,
0x37291bf5,
0x20170dfa,
0x1112020d,
0xf8fe110e,
0x0ff30102,
0x0d150816,
0x0cfcfa0a,
0x1505120e,
0x06f5ce0c,
0xfb1614f4,
0xf105f5ff,
0xf7e612fd,
0x0d0b04f9,
0x1c0009ee,
0xf9070a08,
0x12fd1410,
0x2c1af218,
0xf3180502,
0x19000213,
0xf909000d,
0x02010114,
0xfd0501d8,
0x0104120c,
0x0bd608fe,
0xf10334ff,
0x2b0b0017,
0x2e041c09,
0x010c0d1b,
0xe8e8d8ed,
0xf7ed0731,
0x1ff9ec1b,
0xfdef110e,
0xbfe6f9f2,
0xf01804fd,
0x23041a0d,
0xf1dff5fb,
0xf6e840ff,
0x24f1011d,
0x5fecfc09,
0x1512f4f8,
0xf9d607f0,
0xf1160724,
0x3c0feef5,
0x0528e80f,
0x1bf7faec,
0x3416feec,
0x28f10ff5,
0x0dd8160b,
0xf9f8c8ec,
0x1e0010f6,
0xd708e614,
0x0ce8fc14,
0x2f5430ff,
0x1e17f307,
0xddf91107,
0xe8fe0cfb,
0x705376ff,
0x6c1212ee,
0x4803f911,
0x053614f1,
0x1bcdf616,
0xeb0c0400,
0x15170116,
0xeb37ed1a,
0x141c3b1a,
0xf406eed9,
0x221317f0,
0xf4ff01fc,
0x1bc5ae03,
0xab0df72d,
0xfffa0404,
0x0033101a,
0x9588b4f2,
0xd6131bf2,
0xb1eb0dfb,
0xf6c314f1,
0x274d4519,
0x7f0812d7,
0x0d07070f,
0xff001909,
0x481b1a15,
0x0217192e,
0xecf6f805,
0xec650302,
0x1e4ee304,
0x18e8f3f6,
0xc513e700,
0xfaf1f2f2,
0xfdec02ea,
0xdbe81002,
0xe2ec08f2,
0x0b00fd0e,
0xf900e8e8,
0xcbea102c,
0xfa0c04f5,
0xe82cf7f8,
0x27320508,
0x32fd12e9,
0x9bef0619,
0xf1d40718,
0x071ed019,
0x021bfcf1,
0x98f0f50e,
0xf4bb1716,
0xa4c70ee8,
0xc4fef7f3,
0x35fd0ef5,
0x04030900,
0xf40616fc,
0xedf10122,
0x19f700ed,
0x061402f3,
0xe9e62df6,
0xf604ed28,
0xe6f3fd07,
0x002b15f9,
0xa688d014,
0xdfeef318,
0xd81611ee,
0xf1eb060b,
0xafdff214,
0xebf60ff5,
0xe501f816,
0x15ed0df6,
0xeee603f0,
0xd91b05d9,
0x24f2f802,
0x06030e09,
0xd30f230b,
0xee1d14f3,
0xec1afef5,
0x0cd50b02,
0xfb0034fb,
0x181906f1,
0x1f170cfb,
0xfce31218,
0xdd1df2f8,
0xe9f10707,
0x0b08050b,
0xf3f70315,
0x1f0d1e20,
0xff041bf1,
0x25fd131b,
0x1b0af6fa,
0x475d2eef,
0x2b151915,
0x3515141a,
0xfc380601,
0x4f6e2808,
0x161b0405,
0xfa1aedf0,
0x0a351ff7,
0x633128f3,
0x53080cd0,
0xf806f31e,
0xfbfd0001,
0xfd05070e,
0xf603efff,
0xe21d1f0e,
0xfaedf2f9,
0x3848ebf4,
0x26100309,
0xed0b08fe,
0xfceb07f7,
0x1e0da4f2,
0x111c02db,
0x811af903,
0xf4f1200a,
0xce00c717,
0xdb1615d4,
0x931d0a18,
0xf6cc0ffa,
0x1c211517,
0xd60d1bea,
0xb1200f0a,
0xf4cd00fe,
0xf6f3adfe,
0xb909eeef,
0x8ff6fe15,
0x040d12f0,
0xc7e2e300,
0xea18ffc4,
0xb81f1c18,
0xfac612f0,
0xe7d5bf14,
0xdc0b1ef8,
0xe105ed12,
0xf2f4f00d,
0xe40edcf6,
0x050b02fc,
0xcb0b1601,
0xf5e7fe0b,
0xeaeecc0e,
0xfd13f2fa,
0xbefc1107,
0x0adf0ff4,
0xc6c8ebf2,
0xa21a00ea,
0xc60efdf2,
0xfbe1f7f4,
0xd50507fa,
0xde1c1ff7,
0x04f80d14,
0x0e19f003,
0xd9ea26f5,
0xe3fb09e7,
0x31eff1f7,
0x05ffec13,
0xb8b00f03,
0xe51018fc,
0x691804f4,
0xf2f111f9,
0xb19a17f0,
0xf2111617,
0x411b1802,
0x17ef1dfa,
0xc1b620f6,
0xf019152c,
0x1bfef810,
0x0f21070e,
0xda02101a,
0x0ef21415,
0x36fe0d04,
0xef1afcf8,
0x1b3033ee,
0x14f0f814,
0x15f20d01,
0x0a0fed04,
0x29170505,
0x24ed0c19,
0x0c09f7e6,
0xfc1b0ffb,
0xfeedb7f4,
0xcef8ebf6,
0xff03f1f7,
0x0621f2e8,
0x19f02a04,
0x2b010be3,
0x310d0af2,
0xef1303ed,
0xeaf1e5f8,
0xfdeef515,
0xf1ff00ff,
0xef2901ef,
0xe7c9c605,
0xeefa06d1,
0xb0ee08ed,
0xf7c5faf4,
0xb0ad0106,
0xe50004e4,
0x0be7eff1,
0x0af1e701,
0xbfab0300,
0xc3030029,
0x31ea0f03,
0xf12bedf4,
0x04f1300c,
0x280cec31,
0x36e702ff,
0xf5350b08,
0xe1c8e10d,
0xedf3f717,
0xf1ffeeea,
0xf506eb03,
0xd3cd0dfc,
0xe0fee71a,
0x3cfceef3,
0xefe2fbf0,
0x18283d05,
0x31f8fd23,
0x510a0fea,
0x0d31f20f,
0x0df337ee,
0x28f102fb,
0x46ee1103,
0xee2cf0f0,
0x0f1a3df0,
0x43f6010f,
0x7ff2fd0a,
0xfafaf00c,
0x1d08f7f3,
0x04fafb28,
0x380efe04,
0x02200607,
0xe9f7110d,
0xf40d0a08,
0x1efcfef1,
0xecff04ed,
0xdeee1907,
0x01fd0ce1,
0x1e05e80c,
0xfa0301ef,
0x12fe2ff3,
0x1b0eedf2,
0x260b12f9,
0x0903f9fe,
0x5b3706f4,
0x68fe060b,
0x29fef009,
0x090ffc05,
0x241fe501,
0xf1eef3e1,
0xf0f201f5,
0xf8d10702,
0xfc16f6ed,
0x04eeeb1d,
0xe20a0bf4,
0xe900ea0c,
0x404edef6,
0x17eaf90c,
0xaa0102fa,
0xee270b0a,
0x5747caf7,
0x27f5ed0f,
0xca0a0cf7,
0xee1305f0,
0x233ee8f4,
0x00eff4d8,
0xc202ed0e,
0xfbd5040b,
0xeefff1f6,
0xeb0c09e7,
0xd805f0f0,
0xf6c20e08,
0xf8f92218,
0x0f04fbff,
0x38fffe11,
0xfc051813,
0xfcfb2efa,
0x14f61616,
0x51191815,
0x1411f5fc,
0xe9e5bc19,
0xf2fbf907,
0x02fdf508,
0xffed1bf4,
0xf313a50c,
0xe31afcf3,
0x90fbf016,
0x18b516fc,
0x272618f4,
0x1cfd03e6,
0xc5ff0605,
0xf5e4130a,
0x2c462611,
0x25f6fe0d,
0xfd0af70a,
0x071d18f9,
0x425d130f,
0x30060920,
0x0a150915,
0x19210c14,
0xe8d81e1b,
0xf301f40c,
0x31f5030b,
0x0e10100f,
0x97d4bd11,
0xc4f60406,
0x0a0011f4,
0x01eefcfb,
0xde11e911,
0x1a000cfd,
0xfaf3fbfa,
0xf5bcf600,
0x0103b111,
0xeff3faec,
0x8106f207,
0x12fb15f8,
0xbff5e404,
0xf1f819c0,
0xe1fdfdfa,
0x0c9efc11,
0x4b5864f8,
0x3dfd06f4,
0x3903fc15,
0x170c0af9,
0x10f504fa,
0xe500141b,
0x28021103,
0x04240cf7,
0xebf4f0f4,
0xe6fff6f3,
0x17fd0315,
0x15fa1213,
0xc8cccf16,
0xd5f40203,
0xd20bfe14,
0x04ca1906,
0x12254404,
0x1f09f7fa,
0xf50409f6,
0x18060806,
0x48292bf7,
0x250d06f0,
0xfff7090b,
0x05170904,
0x03f3cf14,
0xe00015fc,
0xeffdfd0a,
0xfdebf904,
0x01ece80b,
0xdc110cfe,
0xf4f9160d,
0x0e25f505,
0xd3d4f60f,
0xe6fdfeff,
0x0412f9fa,
0x19f304f3,
0xf62b0007,
0x17f905f6,
0xfef71819,
0x0c0b03f7,
0xecfd1c06,
0x091911ee,
0xef100819,
0x1906f802,
0x01e5fd07,
0xe1000425,
0xf21700f4,
0xf91d1718,
0xfced0002,
0xf301080d,
0xfd140e0e,
0xfe1704fb,
0xe0f90df7,
0x060604e0,
0x250a0405,
0xf4ea0bf6,
0xfc162f06,
0x010c04fe,
0x35fb0205,
0xf8e501f1,
0x28295f05,
0x2bf0f31e,
0xf500040c,
0x0405f600,
0xe402b404,
0xd6f00025,
0xa4fd0cf6,
0x04fb10fe,
0xf809c404,
0xca0605e2,
0xd40cf407,
0x0bd600f4,
0x304e5bfd,
0x25f6fb20,
0x580b0910,
0x033af2fc,
0x707f09f2,
0x3feff30f,
0xe4000103,
0xf5140602,
0x4947f303,
0x400703c2,
0xb4010e07,
0xfcccf400,
0xdef30905,
0xedfbf6eb,
0xdbf7040b,
0x11a5f711,
0xfeebed04,
0xe5030f0b,
0x350d0c01,
0x0203f4fb,
0x393acaf5,
0x18ffffe8,
0xc30ef3f2,
0xfbf2fb09,
0xcccec0f6,
0xd2ff08c7,
0xb1f40afc,
0xfad307fc,
0xd1160c01,
0xda080be5,
0xdffcff0c,
0x06e8f401,
0x26310e09,
0x040d0d15,
0xf0eff103,
0x030106f4,
0xec00f8fe,
0x02060f04,
0xfff20106,
0xfbfdf50e,
0xec09e70f,
0xf400efec,
0xe5f2f90f,
0x09d4f30f,
0xff242df7,
0x09f80905,
0x0400f904,
0x000cf8fa,
0xf3f1fa0d,
0x07070903,
0x020df70b,
0xf7070105,
0xdfeee8f3,
0xecfa0a12,
0x030b04f1,
0x100b0806,
0xe3ddf109,
0xe2f4051e,
0x07f5fefd,
0x012105fd,
0xebdbfb07,
0xe90a06fe,
0x110cff03,
0xfae208fa,
0xf4e61f05,
0x19f80fec,
0x3bf7f200,
0xf3dff5fb,
0xf1d806ff,
0x14070105,
0x28f3f809,
0x1002f6ff,
0xd8d22910,
0x030d0d05,
0x260610f5,
0xf9f506f0,
0xf0fe120d,
0x08fffb15,
0x0409f408,
0xfe1ffcf8,
0x0d1ef7fd,
0x0b080e14,
0xf1edf20a,
0xf91ef9ec,
0x251df1ff,
0x10f6eaf8,
0xd2ebf005,
0xeb1af306,
0x11030b0a,
0xfafdfce7,
0xe1f8ff04,
0x0ede0602,
0xf8f5fc0d,
0xf0ec02de,
0x07fff4fb,
0xf4e502f0,
0x13ec17f0,
0x0fed00f8,
0x0603f503,
0xf0010007,
0xdfefa5f2,
0xebeceae2,
0x81fb0a03,
0x06d9eff1,
0xb7c909fc,
0xdaf206ce,
0xcd0a0afa,
0xecba050d,
0xffff350b,
0x340608f9,
0x20f0f7fc,
0x0c1cf80c,
0x132bd4fb,
0xf40bf714,
0xfc03f8f4,
0xfb16fb0a,
0x25320cf5,
0x0bffec06,
0xf2fbfaf1,
0x020d06f7,
0x9c99daed,
0xd90af4f3,
0xe4f7f602,
0xf8b9e8e9,
0xdd0e33fc,
0x3efc06f9,
0x1afa0807,
0xfd0be8f5,
0x1f1618ee,
0x5d0b0408,
0x100207f6,
0x0e12fd0e,
0xd1e0edfd,
0xdb080dfb,
0xfef3fcea,
0x04faecea,
0xdb0212fb,
0x0ef7ead3,
0x08fd01f6,
0x01ccfcf4,
0xe7e12607,
0x28ebfa20,
0x6cf9f8ee,
0xec3607fb,
0xe8d6e7f7,
0x3cf7eee2,
0x050504f4,
0xedf702f9,
0xf8e91005,
0x33f6f8f5,
0x310e08fe,
0xf2de0cec,
0x0a2d09f0,
0x06f6070e,
0x3befedf1,
0xfa14ecf3,
0x1d19010e,
0x13ff00ed,
0x22fa0bf9,
0xf304ebf2,
0x4930280d,
0x2bea080f,
0x12eff0ee,
0x05060c0d,
0x15eee704,
0xf409fcea,
0x04070c0b,
0x05ea0cfd,
0x0e17d703,
0xfc0ff2e0,
0x0502f2f0,
0x07f5f003,
0x3733f6fa,
0x1e0df5e6,
0xf5f80f0b,
0xf4ea06ec,
0x1908e006,
0xf20decef,
0xefff100d,
0xf7dbfdf3,
0x0b06ff0c,
0x0103040c,
0xec160d0b,
0x13170ef8,
0x0a04e00e,
0xfe0810f5,
0xc1fe010a,
0x13fe0b05,
0x0c0bcd12,
0xfc0cfc02,
0xc5160810,
0xf6ef1601,
0x0e18b60c,
0xd9f80c07,
0x810a0c0a,
0x0de2fdfc,
0x1e250d09,
0x07f7f5e3,
0xbd110806,
0x08de1206,
0xffe5c80c,
0xd806f9ed,
0xa0040dfd,
0xffe21714,
0xcbede20c,
0xd600fdf7,
0xecf8030e,
0x05eff7f9,
0x080c2c0e,
0xfd101214,
0x0811020e,
0xf51a0c0b,
0xc2ebb200,
0x9c13ff14,
0xba11f806,
0xff090201,
0xf10cfffb,
0xf60605eb,
0xe8000f00,
0x0be31012,
0xdac8c9f7,
0xd2150c1a,
0xe30a03f5,
0x08040301,
0xd7022502,
0x021310f1,
0x05f7f9fc,
0x03000f0c,
0x2d361b13,
0x3a040b17,
0x0df613f7,
0xfd2614fe,
0xc9d9dbff,
0xb5110409,
0x0306f40b,
0xfaf5040b,
0x01f921f5,
0x18fa15f8,
0x2d0511f5,
0x070af7fc,
0xedd30e07,
0xf9131501,
0x2ef7fc04,
0xfe1e0104,
0xdde40d0e,
0x0eff0ad3,
0x3406ff03,
0xfce307fc,
0xffe22c07,
0x061200ed,
0x2a11f70c,
0x0306f705,
0xfd22eaff,
0xf4f60206,
0x36100ffc,
0x0d050d11,
0x141804f8,
0x1301fcf8,
0x271011fa,
0xf4131309,
0x2316fb0f,
0x220afb14,
0x0d04f7f5,
0x0b020616,
0x1c1fde07,
0x1d0a16f7,
0xe510fcff,
0xfde90ffa,
0x1805fb10,
0x1102fd02,
0xf0fb0e13,
0xffe2f8f7,
0x1d1cf914,
0xf00f12e4,
0xfd151116,
0x0fe407fe,
0x000bf702,
0xf9fa11f8,
0xfe0013f7,
0x03e5ff07,
0x0115fcfd,
0x0600fb00,
0xf3f2fc01,
0xebe9f403,
0x22173aff,
0x17eef3ee,
0x260df3fc,
0xfbfe030d,
0x1a001200,
0x26fbf80b,
0x13000909,
0xf03506ec,
0x12fee8fa,
0xf1f1f4f0,
0xe0fdf0f1,
0xf705f7f2,
0x02f2e4f3,
0xe00a07fb,
0xcbeb07fc,
0xedf4f4ee,
0xf113fe06,
0x0107eeff,
0xd0fdf0f7,
0x07f50bf0,
0x07041efd,
0x2100f6ff,
0x04f508fc,
0x0af9f8f9,
0xcba5f6fd,
0x08eaefea,
0x1904edf1,
0xedfbf20d,
0xc8beca04,
0xcf0bfd03,
0x2bfefbf0,
0xf60806ec,
0xccf4b90a,
0xd0edf104,
0xcffefbf0,
0xeff5f701,
0xf0f2e0fb,
0xe9f3f507,
0xd9f507ff,
0x05d20afa,
0x030149fc,
0x50fef4d8,
0x360df901,
0xeaddeced,
0x3e417f05,
0x410c0328,
0x6fee0ff4,
0xeb4df8fb,
0x00ebfff7,
0x06030133,
0x3afb02eb,
0xfd2dfefa,
0xcfe9c9ff,
0xe3f5fcf4,
0xf404f501,
0xececf7f7,
0xd3c0140b,
0xdbf0f11b,
0x0ff1f0fe,
0xfdf9f7fe,
0x364226ed,
0x55f6f104,
0xe904fbfb,
0xf20ff6f1,
0x393d0ced,
0x5dfe01df,
0xd9edf005,
0x0ee506ec,
0xf307f500,
0xe1f3f3fb,
0x1209f2fd,
0x0afc0009,
0xf4e8f40b,
0xebeafdf4,
0x2ceeed00,
0x01100304,
0x1a09dcfb,
0xf40aeeee,
0xe7f90900,
0xf8f40c00,
0xec03dcf7,
0xf406ebd3,
0xbef2f0f1,
0x0ce9edeb,
0x112fd4fd,
0x14f205cd,
0xc3f7fe01,
0x0bcf01f8,
0x32460fed,
0x1df305ee,
0x0bf1000a,
0x00f4f90d,
0x16fe10ed,
0x04f3eff2,
0x0407090d,
0xff140802,
0xfd041cf1,
0x14ebfffd,
0x2806edf8,
0xfa01faec,
0xfdf602fc,
0x14eafa0e,
0x2204f7f0,
0xf3190a02,
0xfb00b7f2,
0xdef10507,
0xc6f7f1f3,
0x01eefa01,
0xfbf1a907,
0xe400ebe8,
0x81fc06ed,
0x02b1f9fc,
0xef08ff01,
0xeb09f2ed,
0xd2f90bee,
0x08d208fc,
0x0c2f02fa,
0x05ef04ed,
0xf8f8f908,
0xf9120909,
0x1a093104,
0x0aea0011,
0x1b0004f1,
0x001508f9,
0x03eeec07,
0xf202ff2e,
0xe3f70afe,
0x050c05fe,
0xbce2cdf1,
0xc9030610,
0xcd080afe,
0xead9edf6,
0x012021fa,
0x1bfb08d9,
0x1bf8f307,
0xeac7fcf4,
0xfeea0903,
0xecf5edeb,
0xe6f4f7f9,
0x0ad502f8,
0x0d1efff4,
0x1c05ffe2,
0x09fefcec,
0xfbdc00f7,
0xece1d1ea,
0x02ebf2f8,
0xf5fb06f8,
0xefe5ffed,
0xece90af7,
0xe1eeed03,
0x12ec05f3,
0x09dffaf9,
0x0e0a1608,
0x23fafcf7,
0x3a02f300,
0x06edeb01,
0x041d26fd,
0xf6edf7fe,
0x22fa0bf0,
0x05efea02,
0x11073af2,
0x1ced0309,
0x48ec0dfd,
0xfb05f0fc,
0xe7e7eb01,
0xee02f5fe,
0x6607fbed,
0x08fb00f5,
0x070820f3,
0x28f3ee07,
0x4b0706fe,
0xff1e09fa,
0xffe3f905,
0xf90008f5,
0x1e0bf50a,
0x0b1dfe03,
0x102af7ee,
0x0cf7ebee,
0xe0fdebf4,
0xffed0304,
0x301b0a09,
0x2304f3e9,
0xeb01060a,
0xed05f107,
0x1b260cf7,
0x2009f3ea,
0x20fbef08,
0x0818fa06,
0x281a0c0a,
0x21ebf4e9,
0x0ffbf6f8,
0xfa1df4f6,
0x22f4f000,
0xee04fbf2,
0xf3f404f0,
0xf703f5f3,
0x220cc507,
0x0c11021f,
0xb904f5f1,
0x03250100,
0xe606d0ef,
0xc4130607,
0x93faf20f,
0xfde8f919,
0xf327570a,
0x0c0b00eb,
0x1c19f2f8,
0xf5e902ff,
0x1705f20e,
0x0a15ff1e,
0x44fcfbfc,
0x192303fa,
0xfcf7e0f5,
0xe3090803,
0xd50df4f1,
0xfb1615ef,
0xc2a68319,
0xc70ff8e9,
0xaf190810,
0x10e21914,
0x86af2d16,
0xd4f203d5,
0x210806f8,
0xf5bc01f0,
0x427d7af9,
0x5f1a0b08,
0x5afcf901,
0x0e21fe0b,
0x4b15f912,
0xe812f63b,
0x04fbf306,
0x014b0013,
0xd7cede06,
0xca15f611,
0x0ef30cf1,
0x0911f4f9,
0xe51f29ff,
0xc006fc22,
0x41fa0b03,
0x16390ffd,
0x536b2806,
0x18030458,
0x09eff718,
0x0e7ff217,
0x0009b90b,
0x2afaf1e5,
0xa004080a,
0xf8d8fe04,
0x190632f2,
0x1c0bf5d6,
0x09ff121a,
0x00e3f704,
0x0bff0304,
0xf9f4fb3d,
0xf9090e13,
0xfa391705,
0xee10f216,
0x110af7fe,
0xe5f3ef05,
0x0922fff4,
0xa890cf05,
0xccf905da,
0xed070114,
0x08e3f10e,
0xb9d815fa,
0xd0fef506,
0x1f0c1614,
0xf2d611fa,
0x2e3fed17,
0x3314ff39,
0xfbf81119,
0x10410301,
0xf314cef1,
0xddf7f621,
0xa2f2f000,
0xfc26ef04,
0xf7ec3117,
0x22fafd11,
0x4314f51a,
0xf62209f5,
0x2b140efe,
0x3ff31521,
0x2ef0f314,
0xf00d07f9,
0x291ff7f6,
0x40180e25,
0x10f714f0,
0x0e2a1713,
0xd9bdd1f7,
0xf1f00410,
0xd507f5ff,
0x09c20dfb,
0xb8d8fffb,
0xd2f9140c,
0xf00e1017,
0x19db0919,
0x0800e815,
0x10fefcea,
0xee10ec12,
0x1307f317,
0x0412eaf4,
0xeb1709f4,
0xc3f1fdfe,
0xf40712ee,
0x092a4311,
0x2cf401e2,
0xd8f113fa,
0xf4d00019,
0xf901b6f8,
0xe7f3ef12,
0xb6f3f3f0,
0x14d30705,
0x03080a03,
0xe7f200f3,
0xe50a00f3,
0xf7c6fd16,
0x221fd4f9,
0xeb01f00c,
0xc9001307,
0xee22fefb,
0xfb08f604,
0xe90bf3e8,
0xd01309f8,
0x0ed7f408,
0x6f6817f4,
0x57f100f0,
0xd2150ef5,
0xfb00fe16,
0xee22cdf4,
0xc612f607,
0x81f21110,
0x01e80b07,
0x11202e07,
0x061712fa,
0xf007f609,
0xf7db090e,
0xecefc4f0,
0xfd03f50d,
0xd00b06ff,
0xf1f21112,
0x0101d4f1,
0xe3f90917,
0x9500f00b,
0xf01a17f9,
0x11fb87fe,
0xf6fcf8e2,
0x82160f0c,
0x13c2000b,
0xcacaf3f4,
0x90110ad9,
0xaa16f1f0,
0xfac9ed15,
0xe6ed33f4,
0x0101f0d6,
0xfd0d0f05,
0x06ddfaf9,
0xe9010cf2,
0x2105f621,
0x21f30b00,
0x110d14f4,
0xc5bad915,
0x0af2fef8,
0xff0e18f4,
0x0cd3020c,
0x96b30105,
0xca0ef0f6,
0x450af2fd,
0xfdd81010,
0x020e22fa,
0x08080a0b,
0x42091103,
0x0e260010,
0x16e605f7,
0x2108f631,
0x28f11218,
0xfb2efbf7,
0x24022cf8,
0x2d130603,
0x28f70709,
0xfa141808,
0x04eb4f12,
0x12f1f7fb,
0x5d04f70b,
0xfdf71902,
0x05fc4516,
0x35fe0323,
0x760df411,
0xfd22f70a,
0x1d09f9ee,
0x110bf414,
0x3003f40a,
0xf410f0ff,
0xf2fcfcf8,
0xf91208f9,
0x19fafeef,
0x0b02f30d,
0xf8f71701,
0x02fff80a,
0xfefd0801,
0xe4fb0307,
0x101603fc,
0x0aea00f6,
0xf903fafe,
0xfbe40a01,
0x1d2c2901,
0x10ec00e7,
0xdef6050b,
0xe9e2f1f2,
0x120906ef,
0xf9fcf3f8,
0xc0f10106,
0xede4f604,
0xe8eaf70b,
0xdde5f5e7,
0x1b0cf609,
0xeae3e7fe,
0x15fffee8,
0x05e5e5e6,
0x0cfe0de7,
0x00f7f809,
0xf909fefe,
0xf6faf2f1,
0xc3f108ed,
0x0ad7e609,
0x0e37e6ef,
0x0f0cfaf7,
0x9feff1ec,
0xfad50be4,
0x083337f2,
0x070805e8,
0xe0ff10e7,
0xf7d40c0d,
0x2a213f06,
0x22fbf1e9,
0x3bebfde9,
0xf0f1fa08,
0xf6ff19e8,
0xf2ececea,
0x32f0f80c,
0xe502faf1,
0x09f3d6f7,
0xf3f4eb1d,
0xf500fee8,
0xee0bf6fb,
0xa09a8100,
0xd70a0ae7,
0xbee809e8,
0x0bc00bee,
0xef1d33e5,
0x1bede9d7,
0x17fcf0f1,
0xfcd1f4f9,
0x19151101,
0x27eaedfa,
0x190903f6,
0xf4fffdfb,
0x352b660f,
0x2ce90c02,
0x4ffc040e,
0xf9010c0f,
0x07c304fb,
0x16efff0a,
0x57feeefd,
0xfc26f1fa,
0xded5f4ef,
0xcdfc0629,
0x73fbe507,
0x0b13f1ef,
0x401928ff,
0x270208f7,
0x2105f509,
0xe322fe0e,
0xfdf1fc0b,
0x11040afb,
0xf9ebfc06,
0x090de904,
0x2527000d,
0x21f60ae5,
0xd9fa0cf6,
0xefea0dfa,
0x2efe12e7,
0x17fa09eb,
0x1f00faef,
0xf7ef0efa,
0x0eff08fc,
0x02fdf4ff,
0x420b09e7,
0xfdfa00f3,
0xfed7eff8,
0xf0fbf4f0,
0xfafce9e4,
0xfbc9f3ee,
0xedf600eb,
0x08f0e60a,
0xe0f40ae5,
0xfb03e905,
0x060ae716,
0xfa0d1829,
0xdef306fb,
0xfd221907,
0xf100d90a,
0xd512f905,
0xe1fd00f6,
0x00fe08ff,
0xf5d4360c,
0xf5fc05f4,
0x3ef413f6,
0xff1311fe,
0x08d231fd,
0x2af8ff0f,
0x79fa0d02,
0x03340b0f,
0xf2f6e008,
0x0dfffb2d,
0x12f91713,
0xf23e1815,
0xe7dea8fe,
0xf4f80df9,
0xd10c0b05,
0x0807f7fc,
0xd7e80f0b,
0xe503f4d2,
0xef040508,
0x08cf04f1,
0x2f397f16,
0x4500fc19,
0x65061108,
0x0d1ff302,
0x40091114,
0x23f7f326,
0x3a0914f9,
0xf96a150b,
0xf3d9de05,
0xcd15f62c,
0xec15fc0e,
0x12191210,
0xeee0c5f2,
0xbb1512f5,
0xf2040505,
0x13f6f505,
0x1a2c2ff4,
0x0b0af810,
0x17120e12,
0xfa3c080a,
0x4a111bf7,
0x3e100d04,
0xf6100318,
0xf0000a04,
0x2f20e411,
0x1efe00f9,
0xc2fa030f,
0x122600f8,
0x02fdf503,
0xeefd031f,
0xe90716f9,
0xf52407f3,
0xdbf2b7f2,
0xf10612fb,
0xdd04f0f2,
0x14e00901,
0x2320e709,
0xf8fdfaf4,
0xdf041516,
0xfbf01303,
0xf6f90c12,
0xebfcfaf8,
0xca12fe18,
0x0d050a0f,
0xe001dc03,
0xf9f60e12,
0xb1f90009,
0xfed80b0e,
0x051de301,
0xd6ff0ff6,
0xc00cfd04,
0x06defd0a,
0xe3dc200e,
0xe4fafb22,
0x4b0d09fa,
0x0d23f5fe,
0x0a27ff16,
0xfefc002a,
0x0d03f215,
0xf63a0512,
0xf5d8fbf8,
0x02fb082c,
0xf31408f4,
0x1218140d,
0xd7d1cb10,
0xb6ff0839,
0xdd0f04fe,
0x0f260a16,
0xc7c90c03,
0xeffbf509,
0xfdfe06f8,
0xf30bf4f0,
0x161e18ed,
0x0b07ea1f,
0x35f8f20d,
0x0afef106,
0xff020efe,
0xe102fb09,
0x43011101,
0x1108f212,
0xe8ed0e0e,
0xf2090bff,
0x28030df9,
0x0d0dee10,
0xf2e7def8,
0xfb060e07,
0xefeb0806,
0x11f1edf6,
0xcaceb008,
0xdf02100f,
0xbd02f1fa,
0x11e709f3,
0x0f1af4ff,
0x27eb0d0c,
0x19ea14f1,
0xf117f0ed,
0xf4222c12,
0x041005e0,
0x13fbf30f,
0x0ded02fa,
0x2d2a3205,
0x08ebf1fa,
0x360602fc,
0x03f9ecfe,
0xf0f93c02,
0x10fc0e0c,
0x3fef03fe,
0xfafaf5fb,
0xc7910af0,
0xe9050dfe,
0x46faf3f1,
0xf607f4f4,
0x05111202,
0xe3f4f6d4,
0x3209ee01,
0xed111002,
0x1a0516fb,
0xdd0b040f,
0x39ef12f2,
0xeb2ceb08,
0x00d5e7f0,
0x1aedebeb,
0x1deef605,
0xfbee08f5,
0x4a4425f9,
0x620effe2,
0x41fb0607,
0x0e070df7,
0x3f16fe08,
0x08ea1134,
0x140a01fd,
0x0f7eecf9,
0x194b130e,
0xf000f3c9,
0xd3f7f3f0,
0x11ebf6ea,
0x565666ed,
0x100ded1b,
0x4502f9ea,
0x12490212,
0x02e6ecf5,
0xf7e90b09,
0x0cfbf002,
0x061fefeb,
0x4416dff8,
0x46ff062a,
0xb4ee05f1,
0x130b11ef,
0xde0ab7f9,
0xe0060008,
0xa3eb04f0,
0xefd8fbee,
0xc1e006fc,
0xcced0eed,
0xfef711f3,
0xf513e90e,
0x1e3c450c,
0x43ebfa08,
0x1b040402,
0xef2506f8,
0x351227f0,
0x11edf626,
0x0bfb04f1,
0xec3e13f8,
0xba81c7f0,
0xde0ff31d,
0xdbfb13f6,
0x0bfb0f0c,
0xa3c2d4f0,
0xb003ef03,
0xd9f3eaf0,
0xf2f00cfb,
0x110e26f3,
0x27ede203,
0x26fdf801,
0xef0b05ec,
0x14f60ade,
0x18e80222,
0x50e5e1e7,
0xdd0cf5ea,
0xf41b1ee4,
0x0de4de08,
0x0e00e9fe,
0xfc02e108,
0x0df43ef8,
0x26fcfaef,
0x62f609e1,
0xe80904fb,
0xc9b7f7e6,
0xf4fd0207,
0x33fe04e9,
0xf01fe9ec,
0x1c0c39f6,
0x17f6e0fa,
0x26f8eade,
0xdffcfbf1,
0xd9d0fafd,
0x2adee006,
0x1ffcfff2,
0x06fe01e1,
0xddd100fc,
0xd804ed07,
0xf7eb04fb,
0xe1dbe408,
0x422a68e6,
0x51edf4df,
0x3ae7e8fb,
0xf3f3e604,
0x1ced0ede,
0xff01000d,
0x4602e0fe,
0xe93bffe6,
0x1f1b44eb,
0x18f3e4de,
0x3cecfbe9,
0xe4f8e1e5,
0x05142f03,
0xf7fbf530,
0x59fcf9e8,
0xe70ae5ed,
0xd3abdff7,
0xfbe5f6fb,
0x2300e1f3,
0xe410e3ea,
0x3a2b27f9,
0x7ff0f3cd,
0x25fffd01,
0xe2eee5e8,
0x370c0cde,
0x1ae5f22d,
0xf3ed0ade,
0x080dff05,
0x333e3ff8,
0x07edfad4,
0x07feeede,
0x0a14ffe1,
0x18061fe9,
0x17f2ec13,
0x1c07effd,
0xe232e4ea,
0x11e8ece1,
0xe3f2f608,
0x11f2e7fd,
0xe5ebf3e8,
0x10fa1ffe,
0x3dede8e8,
0xfae502fd,
0xf51308f4,
0xfdd8d900,
0x01eefceb,
0xd908fbfa,
0xe2f4e700,
0x020201f2,
0xf7ede903,
0xd6e5f7e1,
0xeafff8fd,
0x251634ec,
0xfaf4ed0d,
0x0de3f004,
0x061cf5e8,
0x433e07df,
0x1bfdfbfc,
0xf5fef4f3,
0x042ef100,
0x1be4f3fa,
0xfef4001c,
0xe0f60b02,
0xfa2100e5,
0xeb04d2e8,
0xf1e9def0,
0xcbeffceb,
0xecf6dff4,
0x080a0af6,
0x23f0fe04,
0x0c0301f2,
0x040008f7,
0x1c241e02,
0x33eff510,
0xf4070aed,
0x0afc03f9,
0x0d0a0b04,
0x1af7e9fa,
0x110a0bfa,
0x0c020b01,
0xe5d80eef,
0xe6f904f0,
0x24ecf5ed,
0x0028ec04,
0xdabedef1,
0xfdf5f814,
0xf101f9fb,
0x0b24fffc,
0x11fae302,
0x21fa0cf0,
0xc8eaecf5,
0xfcd00100,
0xe1fac70b,
0xeae909fe,
0xc70ef9f6,
0x0bcffef9,
0xeaf740f3,
0x10f2f6f5,
0x18ee0bfb,
0xfff209ff,
0x07042bed,
0x1808ef01,
0x450b02ea,
0xf84aebf1,
0xfbbcd809,
0xd0ecef43,
0xebe9fafc,
0x0644fbfe,
0xd8eacb06,
0x08f7fbcd,
0xdbeffb03,
0x05c807f1,
0xb6ad3b03,
0x07f700c6,
0x3cf4f4e9,
0xebc0e8fb,
0x202d7ff5,
0x61fcee21,
0x6dec02fe,
0x030fedfe,
0x0d01db0e,
0x26ebf815,
0x11ebedfc,
0xf403f403,
0xf9050307,
0x13f7e80d,
0xdeec0dfc,
0xf2e2f6f3,
0xf7ece003,
0xe70e0411,
0x12f3eafb,
0xfcf7f90a,
0x3c582dfd,
0x1bf905f8,
0x15f3fcfb,
0xf608f0f5,
0x52281e00,
0x3cf7ef02,
0x05fbef08,
0xf60205fe,
0xe1f2100d,
0xfd060fe5,
0x25fefaf0,
0xfccafeed,
0x292626f4,
0x1c030bf3,
0x29f009f0,
0xffd5f60c,
0xeffbce0e,
0xe40a08f8,
0xd3eafffd,
0x001ce9f6,
0xe208a2f3,
0xc0eff0ee,
0xa8ff01e9,
0x03060107,
0x001ee0e9,
0xe2f808dc,
0xbf0306f2,
0x04db07f4,
0x384e09fb,
0x0ae9f8ea,
0x11ef0207,
0xea050303,
0x1f1bf6fd,
0x0500f2ea,
0xfdfaf801,
0x09df07fd,
0x14ff14f9,
0xf6f4f909,
0x1212f10f,
0x14fb0317,
0xeb0b03fb,
0x060bff09,
0x1cf8010b,
0x0c251416,
0xf5c8c1f7,
0xe915f406,
0x0805f406,
0x0f0c1603,
0xeff4fd0c,
0xe8f609f3,
0x130b0f06,
0xf1e50309,
0x001b17f3,
0x20fbf8fa,
0x02f2f211,
0xf40d0109,
0x03200ef1,
0x090b16ea,
0xec17fd0b,
0xfc0e01f2,
0x0f29f205,
0x02f9faf5,
0xe70afe12,
0x111713f5,
0xeebd1afd,
0xe713f1f7,
0x271101f2,
0xf503f8f7,
0xdcec030b,
0xf0fff121,
0x48f3100e,
0x053c0bf2,
0x0316d207,
0xf806fefb,
0xc6f3f212,
0xfef50316,
0xecdfd9f5,
0xf408f4f7,
0xbd100817,
0xf3f00f07,
0xcdf2daf9,
0x03fd0fd1,
0xf6f4f914,
0x12c6f201,
0x38537f16,
0x35fcf603,
0x38fc16f3,
0x0a1df10c,
0x00f3f307,
0xfc0ef116,
0x041afbf4,
0xf9080b0d,
0xe8e7e40a,
0xc7fe03e3,
0xf90d0d13,
0xfefcfff0,
0xefba9d00,
0xfc180906,
0xa803f3f3,
0x16ed010c,
0xfe24fdf5,
0xebf6f608,
0x93f3f4f6,
0x0cfcf6f1,
0x5e4e43f5,
0x39000df3,
0xc1110311,
0xf923fdf3,
0x0811f309,
0xce130d00,
0xd3fa1005,
0x09e4170b,
0x10ff0805,
0xeaf7140d,
0xe5f9f511,
0x02071009,
0xbec3cd12,
0xbb140505,
0x0714fd02,
0x10e0f515,
0xb6edc2f0,
0xc5fef7de,
0xd309f416,
0xf6d00b01,
0xd7eff605,
0xe60e05ee,
0xbefaf610,
0xffd2000b,
0x04171318,
0xf807000b,
0xdd0bf4fb,
0xfb100706,
0xf908fa15,
0x03f61513,
0x0af4ff13,
0x0f18ff16,
0xf7ebe506,
0xe505f90c,
0xe8140e14,
0x17050ef3,
0xc0bba80c,
0xcd1a05ee,
0xf500ff19,
0x1529030d,
0xc8da8511,
0xa20efffb,
0xd7180019,
0xf3dffe00,
0xe312be0a,
0xe0f404e9,
0x81041904,
0x19cef7fd,
0x11402f16,
0x0a0616db,
0xe410f6f7,
0x15d8021a,
0x02fc1e09,
0xcd0e0409,
0x40fa05fe,
0x1c1d0e18,
0x151029f5,
0xce141c2e,
0x6e1c1414,
0x04481918,
0xebd8b10e,
0x911a1533,
0xf5f71805,
0x02431cf8,
0xd3e5cc09,
0xc00efb1e,
0xd9161104,
0x0ef0fdf5,
0xe91e200b,
0x0ef316c3,
0x020c1401,
0x1491fb1b,
0x332b4c02,
0x1af90e20,
0x30fa041e,
0xf75dfdfc,
0x3122b317,
0xd7050438,
0xe41401fe,
0xf919100f,
0xebd7b312,
0xb81909e9,
0xc4070e16,
0xfaca091c,
0xedf00cf7,
0xc900fff0,
0x0d100010,
0x09f0fb0c,
0x0b1a2d1a,
0xfefb0e07,
0x32111304,
0xfa3b0016,
0x05170c1a,
0x141dfa01,
0xb7f5120e,
0x05060302,
0x00dcf8f8,
0xd70d03f0,
0xf003130d,
0x0cfd1ffa,
0xd9e9fbf7,
0xbcfc150a,
0xf7071718,
0x1826f710,
0x0010f21b,
0xdefb0e02,
0xde05f01d,
0xfe08fbf9,
0xf1000502,
0x16fe16f6,
0xe00afb1a,
0xfb040817,
0xef04e00d,
0xdff818fb,
0xd9fb07fa,
0x01eb1319,
0x0a1eeb0b,
0x0a05f623,
0xe502f701,
0x091efc04,
0xf4e81bfc,
0xe8120318,
0xe101f403,
0x1b051803,
0xe0f40e07,
0xd0f5051b,
0x0116f41a,
0x08060af7,
0xeff51712,
0xf81c0f22,
0x0d09ff11,
0x18191713,
0xf30dc80e,
0x02f5f71e,
0xc51312fa,
0xf0090505,
0xe7efd107,
0xcff90ef6,
0xee13eef4,
0xf80feeff,
0xf905f109,
0x0dff090a,
0x3cf900fa,
0x0612fcff,
0x110fe00d,
0x0010fbff,
0xd40cfb04,
0xf61708f2,
0xfdfae5f1,
0xf70513fd,
0xc6080af6,
0xee06120a,
0xbad6cbff,
0xbffdf406,
0xde05100d,
0x08010511,
0xc8b034f1,
0xc5edf10c,
0x7ffef002,
0xeb1cef10,
0x07f90e0d,
0x0bf10234,
0x7a00f8f2,
0x0d5aed05,
0xd6dfd712,
0xc8f50e3b,
0xeeec06f5,
0x0518fefe,
0xd3e9eb0e,
0xdff6ec04,
0xf6100e00,
0xf8e3ffec,
0xf00f1407,
0xe9060619,
0x460115fd,
0x040d02f6,
0x2a5576fd,
0x1bf41613,
0x710ff7f7,
0xf836ed15,
0x3a0ffbee,
0x28ee0dfc,
0x50090a0c,
0x0831fff2,
0x13e404f5,
0x04f0091d,
0x26fa14f1,
0x040112ff,
0x06060315,
0x150df917,
0x130deefc,
0xfd410e0d,
0xfc021f07,
0xe50200d2,
0x1ef9f610,
0xf8f4eef9,
0x3d475911,
0x18f8f7f8,
0x45f40e08,
0x022af5f0,
0xfcdf1916,
0x25f1f50a,
0x1ff70bfa,
0x141d0b08,
0x04fcfe0f,
0x02f0ed28,
0x0606f613,
0xf822f512,
0xd7dfd800,
0xeffb1116,
0xd9fb09f0,
0xf40a0ffc,
0x2037ecf3,
0xfe16fd14,
0xd90ff1fd,
0x0213f109,
0x496b0603,
0x35ffec2e,
0xaefbebfb,
0xee35f200,
0x4e4bef08,
0x14faeb04,
0xddebf2f1,
0xf1fff90b,
0x21fcd90c,
0x01ef1104,
0xeb010ff5,
0x10fc0907,
0xeddeebeb,
0xd4f014fd,
0xf10c07ed,
0x03f905f5,
0x0f1a3501,
0x16eceeec,
0x30f8edf1,
