//Autogenerated code
const unsigned int model_data_size = 17870;
alignas(16) const unsigned char model_data[model_data_size] = {
0x20000000,
0x54464c33,
0x00000000,
0x14002000,
0x1c001800,
0x14001000,
0x0c000000,
0x08000400,
0x14000000,
0x1c000000,
0x84000000,
0xdc000000,
0x74f60000,
0x84f60000,
0x5c160100,
0x03000000,
0x01000000,
0x04000000,
0x9606ffff,
0x0c000000,
0x1c000000,
0x3c000000,
0x0f000000,
0x73657276,
0x696e675f,
0x64656661,
0x756c7400,
0x01000000,
0x04000000,
0x98ffffff,
0x1a000000,
0x04000000,
0x08000000,
0x6f757470,
0x75745f31,
0x00000000,
0x01000000,
0x04000000,
0x4a09ffff,
0x04000000,
0x07000000,
0x696e7075,
0x745f3100,
0x02000000,
0x34000000,
0x04000000,
0xdcffffff,
0x1d000000,
0x04000000,
0x13000000,
0x434f4e56,
0x45525349,
0x4f4e5f4d,
0x45544144,
0x41544100,
0x08000c00,
0x08000400,
0x08000000,
0x1c000000,
0x04000000,
0x13000000,
0x6d696e5f,
0x72756e74,
0x696d655f,
0x76657273,
0x696f6e00,
0x1e000000,
0x94f50000,
0x8cf50000,
0x74f50000,
0x3cf50000,
0xe4f10000,
0x84f00000,
0x14c90000,
0x24c70000,
0x940b0000,
0x440b0000,
0xd4010000,
0xac010000,
0x04010000,
0xfc000000,
0xf4000000,
0xec000000,
0xe4000000,
0xdc000000,
0xd4000000,
0xcc000000,
0xc4000000,
0xbc000000,
0xb4000000,
0xac000000,
0xa4000000,
0x9c000000,
0x94000000,
0x8c000000,
0x6c000000,
0x04000000,
0x360affff,
0x04000000,
0x58000000,
0x0c000000,
0x08000e00,
0x08000400,
0x08000000,
0x10000000,
0x28000000,
0x00000600,
0x08000400,
0x06000000,
0x04000000,
0x01000000,
0xeb030000,
0x00000a00,
0x10000c00,
0x08000400,
0x0a000000,
0x02000000,
0x02000000,
0x04000000,
0x06000000,
0x322e3135,
0x2e300000,
0x9a0affff,
0x04000000,
0x10000000,
0x312e3134,
0x2e300000,
0x00000000,
0x00000000,
0x54ecfeff,
0x58ecfeff,
0x5cecfeff,
0x60ecfeff,
0x64ecfeff,
0x68ecfeff,
0x6cecfeff,
0x70ecfeff,
0x74ecfeff,
0x78ecfeff,
0x7cecfeff,
0x80ecfeff,
0x84ecfeff,
0x88ecfeff,
0x8cecfeff,
0xf20affff,
0x04000000,
0x96000000,
0xffb681ce,
0xce14c2ac,
0xd7e90bce,
0xcadc0512,
0xf6e01238,
0x3b3a4344,
0x54aadecc,
0xeaf1fc36,
0x3f451f0b,
0x547f3b2e,
0xfe263c30,
0x01e9fee3,
0xe8c08ca9,
0x9898acd4,
0x0f0d1406,
0x244a4254,
0x2d4f7f78,
0x694a3762,
0x2d1611c3,
0xd4def3e6,
0x021e2c4e,
0x281a5c7f,
0x2b1c153b,
0x271efffb,
0x2108eacc,
0xafac9dbe,
0xdac381ab,
0xcd05d8b6,
0xdde916f8,
0xd1f10f42,
0x142d3f58,
0x64df033c,
0x3b36f446,
0x7f4838f0,
0x374a2f0f,
0xeb1b2707,
0xecabc5b1,
0xb5970000,
0x960bffff,
0x04000000,
0x18000000,
0x9e1f0000,
0x08b6ffff,
0x08d7ffff,
0xc0c9ffff,
0x28210000,
0x04c2ffff,
0xba0bffff,
0x04000000,
0x60090000,
0xf305dcb9,
0x071bd795,
0x0b0aa200,
0x1a13a59d,
0xcea5fdb7,
0xf39910e6,
0xe9bf9cf5,
0x97bd01ca,
0xa2aea9ee,
0xbbbee4dc,
0xc61209eb,
0x8ff392ae,
0xecf617b1,
0x02ffc6f0,
0x9fd900a2,
0xcecb1320,
0xe4b0d9b0,
0xe3c0a6a3,
0xa0f4fab1,
0xbc9fd023,
0xd7a48edd,
0xd4a701fc,
0xd4aee092,
0xe0a5921e,
0xdcc492ac,
0x86d0b6fa,
0x9cf4bbb4,
0x81a611f6,
0x90c6dda5,
0xbfaa8224,
0x8fee0b94,
0xaacbeeb7,
0xe6e2caa1,
0x94b994a8,
0x90f307ef,
0x19aae40b,
0xe01b8f0c,
0xb19698e5,
0xdb200f00,
0xb69a2519,
0xfed885ae,
0xa813e9ea,
0x8119de17,
0xa6f497f2,
0x9e12f4fd,
0xb0e7920f,
0x19b9b7f2,
0xd9afb7ae,
0xb8bb93a9,
0x94f9c2a6,
0xbe0a00c1,
0x9ecabfb2,
0x10a1ad97,
0xdf1d128f,
0xe6e011b1,
0x05cfc19f,
0xaae7ddc5,
0xdb8da9f6,
0xc1e6c7d3,
0xf69ff10a,
0x889fd124,
0x85021917,
0xab159b94,
0xd1a7e5cc,
0xa2dee1b4,
0x0fec9db7,
0x99a6970f,
0x8799c8ca,
0xaeed0ec5,
0xe7b1b699,
0xbedec6a1,
0xf41fa7e2,
0xa620c328,
0xf4d59ea0,
0xaffd05c8,
0xcbe6baf1,
0xc5e3acde,
0xd5b99b03,
0x8cd5bce1,
0x079ce102,
0xc7d20ddb,
0xeba9bac8,
0xe80cf6e4,
0xd399ce05,
0xd70d1517,
0xec0cf3b9,
0x1604ef00,
0x8f1818c4,
0xc01d8f08,
0x1af3d4e7,
0xe119f4c7,
0x8e1db1bd,
0x13c2eee5,
0x8507d21f,
0xa0c3811c,
0xf5f7da23,
0x88fb03c5,
0xa9f6b7cf,
0xe3d2c602,
0xf89bb7b9,
0xc6999ba7,
0xaee49cf4,
0x9bebaca4,
0x0101f8fc,
0xb59e07b5,
0xde9604f7,
0xbb9abc92,
0xbaf9b8f8,
0xae9ba7b7,
0xab92c201,
0xdcf5f198,
0xdab6a3a8,
0xd0fbf1b4,
0xa2a6e9ee,
0x98b6e897,
0xd095eae4,
0xc3f6b1fe,
0xe6a3f9eb,
0xb7fd8b11,
0xa2d89f8f,
0xdfb7ced9,
0x0edce914,
0xa8e1fbfe,
0x81fec8f9,
0xe8fa91a3,
0xb4dec7f8,
0xb0ccdc8b,
0xc2a0b5a9,
0xd7ddb91a,
0xd7bdeee8,
0xb3d3e2eb,
0x15d2bbdc,
0xd99db6ae,
0xa7e3ebcc,
0xfc9eb996,
0x07ce03a9,
0xaa0be2cf,
0x10fbb7b7,
0xca8baf18,
0xb997ab00,
0x140098f7,
0xd40fcda0,
0xc503f6cf,
0xa4c8df05,
0xe29ca4dd,
0x03b3aef3,
0xdfe8cb04,
0xb90bc99a,
0xc6d7a6b5,
0x0f1807cc,
0x9590ed83,
0xf8afc585,
0xe099c08b,
0x97fe8d0d,
0xcbf0f7bc,
0xdbcdc815,
0x92f9031d,
0xc515a7d4,
0x0fa1f985,
0xffceebf2,
0x209fc4d7,
0xd301b9c8,
0xcede08b5,
0x11d7e611,
0x04b6f10d,
0xf804baf4,
0xdf9b0e8e,
0xc4f2af92,
0xf0afc1c3,
0x9ff5d6c1,
0x9ce9a3a2,
0xf2fd81b6,
0xdea80cc6,
0x1abc8324,
0x01cd20ce,
0xc0d41a00,
0xd9c8eb04,
0x0ef8deb8,
0xc3db9e9a,
0xe38d14db,
0x881920f5,
0xede9a30a,
0xb101a0b4,
0xe20bc809,
0xa68ba08b,
0xc2c6dfc9,
0xcba7b591,
0xb8ece626,
0x1712d517,
0xe5fcc4ff,
0xef1dcbe2,
0xa9f5f91c,
0xd01dcff7,
0xdd17b243,
0x0837f256,
0x15dccdf9,
0x03e10ea6,
0x9ad11da9,
0x3dc88fc9,
0x3aa419e6,
0xc9d73be2,
0xd70c010b,
0xe71757c5,
0xeedc03c9,
0x56afa6d1,
0x6f8c70c6,
0xcbae5d91,
0x4801eac5,
0x7fe9f81d,
0xfa0a2209,
0x4dfbf70f,
0x12bf76f0,
0x05cd79b7,
0x4f0823ed,
0x5ad920f4,
0xfeda550b,
0xe5e2e9e1,
0x14171c42,
0x51471413,
0x1a415d21,
0x1cfef93d,
0x473827f9,
0x1b0df603,
0x072618ef,
0xece8f3e3,
0x89ee9aee,
0x8aa5acc4,
0xa8f4c6a6,
0xedf6c2f1,
0xdf9dbcd1,
0xdbe38892,
0x93eba5ba,
0x89c0b2da,
0xddf7b3de,
0x8c0ec503,
0x0d10f4eb,
0x8a85dae1,
0xdabd10ef,
0xab13edac,
0x89d0ea00,
0xced4aa09,
0xa79afaba,
0xf0ba0e9b,
0xb8828b85,
0xac8fab8f,
0xcead09fc,
0x04070993,
0x09b6e1fd,
0x89d98b81,
0xa688c8a9,
0x01dfd2fc,
0xdda8f3ad,
0xb9ac8d9c,
0x03ff0db2,
0xa6a1f9bf,
0xf7b694b8,
0xd9bcba8f,
0x8f92028b,
0x1abdf28f,
0xdef8c78c,
0x96a18a99,
0xf3d3a6c0,
0xee06dbc2,
0xfaea948a,
0xdc8eeeda,
0xbcca8c14,
0x14d400ec,
0xac01cc0f,
0x9d0cfef3,
0x9b0489f0,
0xa818e4f3,
0xe3a583d6,
0x06b304dd,
0xbddaa58e,
0x9e8fb4cd,
0xf68fd694,
0x06fd0c01,
0x96d1d0b6,
0xada2af9a,
0xcaef0cca,
0x9feb0f1b,
0xedc9fa0e,
0xc2c4f900,
0xdff0e00c,
0x92ea821c,
0xb4ddfbf6,
0x81bfc3a3,
0xf51691c7,
0x8cdb139d,
0xc1cbb1cc,
0xb3f9f597,
0xd316abab,
0xd58ab58b,
0xa4c08fc0,
0xd3d6e8f5,
0xa292b0af,
0xc6c6f60b,
0xa2abdbac,
0xd6f9c5b6,
0xeaa1dd17,
0x989302c4,
0xf6110ede,
0x16e3c120,
0x0a0b01aa,
0xc8cab316,
0xc284cff1,
0xefd18ca6,
0x06e4c1f9,
0xb0b290f6,
0xeec5cc0c,
0x95f7c205,
0xf515aade,
0xb1d9d3bd,
0xd4d9ee9f,
0xe013149f,
0xb0b7ff95,
0xb8909c0d,
0x8becc88f,
0xead9dfe7,
0x04a98a81,
0x86a2b10f,
0x9a12a2c6,
0xb9feb09a,
0x028a8dac,
0xd9b1d612,
0x0d13d9af,
0xbfb5bb97,
0xf8be87c4,
0x1391f1a5,
0x14ebb8c0,
0x8ee30792,
0xe78ebae6,
0xd0b1f8ef,
0x8ad791be,
0xa3170d11,
0xaacff000,
0x9ad2d6b2,
0xa6d2f133,
0x0823d92e,
0xce2add14,
0xca2ed01a,
0xcf13a723,
0xe5f5b90b,
0xdf07e525,
0xf615e818,
0x0afed9dc,
0xdf03eec6,
0x96c4e6de,
0x22d481ad,
0x02ef1db8,
0xc5ba2ac4,
0xe40607e9,
0x030323ea,
0xdcd217e7,
0x3cbbd0b4,
0x48af45ae,
0xa5b94f97,
0x4ec7e6c2,
0x7ead0920,
0x2c01571c,
0x35161cee,
0x2fd159ea,
0xdfd448da,
0x53e0eed4,
0x72b72c25,
0x19ea4eea,
0xef30362b,
0x21301715,
0x3023ef0d,
0x18210f07,
0x14020b0a,
0x130d1228,
0xd42c3212,
0x1840d11f,
0x1d32c948,
0x84dc1517,
0x97d9d8ec,
0x9fa3fc0f,
0x9bc4c013,
0x03120bf1,
0xc120d9b1,
0x9fbfafde,
0x8dae84d0,
0xb08d09c3,
0x08c69609,
0xc99bd0ae,
0xfa06ebdf,
0x9eeba5b3,
0xbcc2edf4,
0xd01184d6,
0xd705ebf6,
0xd2d8e0d0,
0x9014a2b4,
0x9da5b0d9,
0xeddefb8c,
0x84cbc1c0,
0x81d6b7e5,
0xcb9bdcfd,
0xa4e7bbc5,
0x980f00a6,
0xf5cbe0cb,
0xd3c70fa9,
0x16df9ba6,
0xefafdb9a,
0x15d81a95,
0xfcdb1ab0,
0x1aacc8a0,
0xe1f0efa3,
0x07daf9d3,
0xa2bcc700,
0x9ba692cf,
0xd21202bb,
0x9dd20008,
0xe1e60e09,
0xecfc050e,
0xe116db19,
0xf0f5dc0c,
0xef07d410,
0xe012da2d,
0x07fcfa1d,
0x26d504cf,
0x3fcf22d7,
0xf4e40bfc,
0x00c3c2cf,
0xf7eefda9,
0xb6b51fe2,
0xdfdad3e4,
0x18092ff8,
0x1d1521cd,
0x31f8ede8,
0x0fcf39b9,
0xb9c645c3,
0x59c7a1c6,
0x7fc31ed1,
0xf5dc50f5,
0x101d592b,
0x04f659fe,
0x3bf929ca,
0x6bdff5f4,
0x67be5bc8,
0xe2c35fd4,
0x03e6ecca,
0x4800e552,
0x6d4cde33,
0xff617550,
0xda34313b,
0x4e3c16e5,
0x3df2111b,
0x18e017fc,
0xfd021ce9,
0xd4fe95ae,
0x8aeb87a1,
0xaad00b0a,
0xa9bdbba4,
0xd592c683,
0xcecdd5db,
0xaa8c8d17,
0xe6e1eaa3,
0xa59407ec,
0xdeb017e9,
0xb9f6e1d3,
0xe7feb6e8,
0x98a1c7c5,
0xf9c99bb2,
0x90eadcb1,
0x8382e9ba,
0xa08be8be,
0xd6c2dfdc,
0xeee9dff5,
0x948a0c93,
0xb78a84ea,
0x9612a6a1,
0x8709a7fd,
0x1bb5b7c2,
0xdc8a8b1d,
0xf80b9af4,
0xd88ebe08,
0xe6e6d4f0,
0x0701819f,
0xb1d6cdc2,
0xb0d5c816,
0xd40fbec4,
0xf39f8aa1,
0x10b893b2,
0x95e40bbb,
0x05dcdcef,
0x08a213f5,
0xe0daf5fe,
0x200a0eff,
0xdb23362e,
0xf439e415,
0x1230bd3b,
0xcd2feb1f,
0xbf1bd620,
0xf225ce37,
0xec19040d,
0xf60fee03,
0xf601c610,
0xfbf5b8d8,
0xd6f6ffd0,
0x94be06dd,
0xe3dfccef,
0x0908f326,
0x10210401,
0x03ecebf7,
0xceda1fcf,
0xa5b106b0,
0x3ac89bae,
0x43a91dd8,
0xcee453b9,
0xfc1e262a,
0xe11b29f3,
0xfd00ffc4,
0x4bcfebd9,
0x52a75ecd,
0xf5d97fa5,
0x290f1d00,
0x51d8042a,
0x2a1bfc16,
0x060c3206,
0xf6e94508,
0x311534e7,
0x0e18420a,
0x3b06e639,
0x2d38fc33,
0x15e0f6cf,
0x12f302e9,
0xf5dd08f6,
0x030e0208,
0x0efc05f8,
0xfb1ffb0e,
0xdbfa1513,
0xdaf8e802,
0xd6d716dd,
0x15d619d8,
0x26f5f9f4,
0x3b040a0e,
0xd91e4032,
0xe326f5e3,
0x0006ed0e,
0xfcf4f0ff,
0xe40c02f5,
0x12101312,
0xc73e4d3e,
0xca36ad4b,
0x5935a834,
0xe2083215,
0xae1ef6f6,
0x0a18d5fd,
0xcd421e26,
0xba418149,
0x4262825e,
0x8930245c,
0x9652dafa,
0x1ffbc5f7,
0xba19dadd,
0xcb26a61b,
0xfbf1d026,
0x97eed31e,
0x8750b715,
0xe118bd37,
0xfcf30718,
0xdb0df623,
0x14fff605,
0xe9f8f6f3,
0xd007ebee,
0xc4d7e50d,
0xe3e2cee5,
0xcd04e6f0,
0xdd03e8fe,
0xf6d9e0ec,
0xdef92bc5,
0xd4c016cc,
0x48cac8bc,
0x3cbf42b1,
0xceaf38c5,
0xfcdce9c9,
0x39d052cf,
0x36f12da6,
0x65f135db,
0x709f7fe8,
0x11ec749b,
0x5ad410db,
0x5cab29da,
0xfbbd37cd,
0x082a543e,
0x040d1862,
0x7a480025,
0x08496149,
0x0e030623,
0x2b0cffff,
0x21f321e2,
0x0df0b33d,
0x1e25ae3b,
0x9b4a204a,
0xa44cab2f,
0x2c339b50,
0xe939361f,
0xaa151efe,
0x2019d9fb,
0x2615ffff,
0x04000000,
0x40000000,
0x05d2ffff,
0x9cd2ffff,
0xdad0ffff,
0x6bccffff,
0xcad0ffff,
0xe7030000,
0xa9cbffff,
0x82cbffff,
0xbacbffff,
0x02030000,
0x44cfffff,
0xb3000000,
0x3fc7ffff,
0x70feffff,
0x3df7ffff,
0x05faffff,
0x7215ffff,
0x04000000,
0x80bb0000,
0xf602eef7,
0xeceefafc,
0x0ce1fdff,
0xfcb01de9,
0x0a08eb17,
0x05e10a03,
0xede5e9eb,
0x12ab09ac,
0xf9fc0cf7,
0xe9c6f0e9,
0xf7d504d7,
0xfa1101fe,
0xff080b00,
0xfb10eff6,
0x15db0009,
0xff22152b,
0xfff50a05,
0xfd15f306,
0x0af60b09,
0x10140220,
0xeff9ff09,
0x0ee80104,
0x02cefa01,
0xf101ead2,
0xf20b01f5,
0xf009000d,
0x1435fc23,
0x113cb00c,
0x0efe0916,
0x1114f609,
0xfd2713de,
0x16812b2f,
0x020313e8,
0xf9e70c07,
0x09d307f9,
0x09222358,
0xeb13ebe9,
0x0d2909f0,
0xf62e193e,
0xf62ede2d,
0xfe1115fb,
0xec261518,
0xfa2a0248,
0x11479e1e,
0x180e0b15,
0xfc48eb06,
0xf648f4ec,
0xfdd4d000,
0xeaee0e10,
0xeab71505,
0x00ba0197,
0x068556b3,
0xfae9ed07,
0x10a00409,
0x12cbf1c4,
0x15e61bd0,
0xeb0c06f9,
0xf406fa0b,
0xee000007,
0x130b152a,
0x07eb0ee9,
0x0724f20f,
0x0d220533,
0xf842d4f7,
0xfd0507ec,
0x0b79fcec,
0x00650b44,
0xf74cbefc,
0x0a05fe09,
0xfd0ef30e,
0xee3df8d9,
0x07eb39f6,
0xf8f10711,
0xf6c709fc,
0x17b8fcce,
0xf0c236f6,
0x0e170903,
0x08c504ed,
0xf9a109e0,
0xeafe0df7,
0x11f309fe,
0x05e6f012,
0xff0af3f3,
0x091ff939,
0x04fff616,
0x062701fc,
0xf738fd32,
0x00f6f935,
0x00f6050e,
0xebec1201,
0xecc301c9,
0x109628cc,
0xf115fc06,
0xfeaffcea,
0x0da5f5df,
0x0706f892,
0x170f0e11,
0x1515eb09,
0x0f181232,
0xfe25aef2,
0x0c090eee,
0xf1e6f60b,
0x0ed4fcf4,
0xf1f818fb,
0xfcfaef09,
0xfc09f703,
0x0813f4ee,
0xffdbecc2,
0x1207f6fe,
0xecd6effd,
0x06c9ebb1,
0x118121d5,
0xf206fbf1,
0x0dd2fbff,
0xf4b50b10,
0xf3420925,
0x0804fdef,
0x02340f00,
0xf236fa1a,
0x1051b830,
0x0902f012,
0x0df6ff11,
0x0d15f434,
0x0341c80d,
0xfdf3000d,
0x0c49edfa,
0xf84e0c23,
0x012edf1d,
0xf6faf6ff,
0x01ef080a,
0x08d1fac4,
0xec8b34e9,
0xfff7f10e,
0xfcc5ed11,
0xfae512f8,
0x0f4e0e3c,
0xf402040f,
0xff470508,
0xf0330b2f,
0xef51c736,
0x06eefdf4,
0xed140504,
0xf8290425,
0x031bcced,
0xf413ef09,
0xf03306f1,
0x090307d2,
0xfea90aef,
0x0cefffff,
0xfeb112f7,
0xffb5ffb1,
0xf2a524ba,
0x070803f6,
0xf3cef5fb,
0x04f2f4da,
0xf62f02d0,
0xeef60711,
0xf6050e12,
0x012df80d,
0x1401e816,
0x10100309,
0xeef50303,
0x0001ed29,
0x0e32081e,
0xfa0df7fb,
0x0f490a0f,
0xff3dee28,
0xeb1df20d,
0xf7ff0df9,
0x06180911,
0xf019ff08,
0x10f4060b,
0x030bf90c,
0x01df10f3,
0x0ddff9e7,
0x06d6140b,
0x050dfa09,
0x03f211ff,
0xebdff3fd,
0x08d71b01,
0xf1f30f0e,
0x07d7f7f7,
0xedddfedf,
0x03ec16ff,
0x00fb1004,
0xf519fcf6,
0xf2e4f61a,
0xfefcf115,
0x080ff9f6,
0x03131311,
0x13f7f409,
0x0210efdf,
0xf1fcefee,
0xfed9edf2,
0xf3d5fed9,
0x13e80597,
0x09f4f30c,
0xfedf0111,
0xf5e305ee,
0xf012e1d8,
0xfc0303e6,
0x0ce0e8e0,
0xeee4e9ea,
0x0902f0f8,
0x04eb04fd,
0xe91efcfe,
0xee06e70b,
0xe114cc1a,
0xeb0af6e7,
0xe7250ee6,
0xe61d0a2a,
0xef20ca37,
0xe1080cea,
0xee42fe04,
0xe6e9ec24,
0xe4dbf01c,
0xe20002f1,
0x0209f0e4,
0x05b7f1fe,
0xebeb0019,
0xfe07f3f4,
0xe8fe0bed,
0xfee601fc,
0xf2ed0516,
0x0be20608,
0xe2fe0a0c,
0xe0e9ec10,
0xf3c7e428,
0x0eef0bf3,
0xe5dcf7e0,
0xdf17e6ee,
0xe5f71942,
0xe6fa01f1,
0xf5c90009,
0x02adf3fb,
0xe5ce3b56,
0xff07f1eb,
0xedcde6f1,
0xdff00c26,
0xf729f314,
0x010bfdfb,
0xeee4e3e7,
0xfdccf0cc,
0xf1de1707,
0x09f3fc04,
0xe2dc070c,
0x06060dfb,
0xe0ffd2fd,
0xe8e806f5,
0xf6e0ecf8,
0xf1fff8c2,
0x009611e0,
0x06ebf4f1,
0xe981e70e,
0x0199f9c4,
0xf8f502e5,
0xe8e30303,
0xffe800f8,
0x07ed081e,
0xf518d502,
0x0cf108f4,
0x1134f7f7,
0xeb11f63f,
0x0330b106,
0xeb05fcfb,
0xe341f909,
0xf533e715,
0x02f2c106,
0x00f1f6e2,
0x05e4f10d,
0xecede2f4,
0x0dcff895,
0xeef3f0fa,
0x01e9090c,
0xeaf50e33,
0x075adfe0,
0x09fef8fc,
0xf74fe7fe,
0xe62f0039,
0x0a4b841b,
0x09f9f903,
0xe634fbf8,
0xe546ea23,
0xe44bf751,
0x0dfcff0c,
0xed3ae20f,
0xf443e718,
0x0002fe32,
0x08e308f6,
0xfdfef70a,
0xefdaf40b,
0xe5dffedc,
0xe2ed0009,
0x0e24f5e7,
0x031ae828,
0xe335c940,
0xf70af4fa,
0xe7520304,
0xfc4df628,
0xfe2bcd66,
0x0f070ef4,
0x080a05f9,
0x0ef102f1,
0xf6fc03f6,
0x07fe0df6,
0x04effd10,
0x0af3f5fa,
0x00f50fe1,
0x010c0f0c,
0x0cdff6fb,
0xfdf9fdc3,
0xfcf008e5,
0xfbfb0709,
0xfdedf9f5,
0xf803f9db,
0xfbf124f8,
0x0efd05f4,
0x110403f7,
0xfaf20bf6,
0x0af41910,
0x04f4f9fd,
0xfa030df7,
0xfa060c19,
0xf52bccee,
0x10faf402,
0x11170efb,
0xfa33fd09,
0x0a42d7ea,
0x0af4fdf6,
0x0a1a090f,
0xf901f5e1,
0xf4e60ed6,
0xfbf60ffc,
0x04dc0709,
0xf6edf5c7,
0xfef0ffd4,
0xfd091000,
0x0ee906f4,
0x09f8fee8,
0xf8fc10eb,
0xfc0801f5,
0xf8250b03,
0xf81ef625,
0x0101f622,
0x0908fcfa,
0x08110805,
0x06e4fc10,
0xfbd01204,
0xfdfe00f8,
0xf6eb03f8,
0x0ff91017,
0xf73fe9e4,
0x00fb0df5,
0x041dfcfa,
0x0e32f802,
0x0910f7ef,
0xf90e07f6,
0xf4fc09fc,
0x02faf608,
0x0102f51b,
0x040efef9,
0xf5f9f302,
0x0eed0306,
0x04e62afe,
0x0bfb040e,
0xf4110df3,
0xf9100352,
0x047fcef0,
0x0b11f20a,
0x0e720cf8,
0x02640234,
0x0325cf38,
0xfbf403f4,
0x0b0f00fc,
0xf8eefdea,
0x06ce25f5,
0xfffa07fc,
0xfdcf0100,
0x0ce5ffe6,
0x0af217e4,
0xfff3050d,
0xfcd0f3fa,
0xfae1fed2,
0x02d02fe2,
0x04fdf4f7,
0x02e70800,
0x0c1606fa,
0x0c091146,
0x02fc0710,
0xfa2e0ef9,
0xf61a0b1d,
0xfaf40e27,
0x04fef800,
0xf904f4fb,
0xf80e0313,
0xf41a03ed,
0x0f0501f8,
0x0ff80d03,
0x0000f4fe,
0xfbfafaf8,
0x0af3f601,
0xf1ef0fe0,
0xf2f5e31a,
0xed0dd1ed,
0x0d0e0bf2,
0x00030503,
0xe019fafe,
0xea4bf3fb,
0xef01e3f1,
0xf103fcf5,
0xe4e50ad5,
0xe2d13402,
0xffff0bf0,
0x08eee001,
0xe7e4e3f6,
0xea1c0009,
0xeedffedf,
0xebeb0af9,
0xfff4ebfa,
0xf90ff707,
0xf7f8e0e8,
0xe2f0f301,
0x09050806,
0xfd08d9f8,
0x000dfafd,
0x0319fee5,
0x01e905fa,
0x01fdf8e7,
0x03ee07e4,
0xebe9e5de,
0xebceffac,
0xf3daf494,
0xfef70fe4,
0xf7e0faeb,
0x0cf80ef3,
0xfa1de9fd,
0x04f0f204,
0xf619df0e,
0xe1260d0e,
0xf210d617,
0xf9e00500,
0x11030ffb,
0xe306f503,
0xff35d0eb,
0x05eafe0e,
0xea46e0ff,
0x08480642,
0xfc7fc01a,
0x0305e403,
0x0970030c,
0xe81b010e,
0xf3de0638,
0x0008e1e9,
0x02f6f0e6,
0xffddfd1f,
0xdf4beaea,
0xe4e0e103,
0xf80dfde9,
0xf1230df2,
0xe1f4e7f6,
0xed07f606,
0xff3a01e3,
0xf11afc23,
0x0c30a433,
0xede5f603,
0x082a0df0,
0xf128e3ca,
0x00e3f80c,
0xf7e1f4e9,
0x0dd0dff2,
0xe9b8e205,
0x04fcfef0,
0xfbe90cf1,
0xf1350c07,
0xed40eb32,
0xe054c61f,
0x08dfe1ee,
0x0a4ae406,
0xf536e00b,
0x05ecdaed,
0xf903e205,
0xee24e0ef,
0xe90bfeff,
0xfbe91016,
0xebe7e1ea,
0x08faf0ea,
0x0608de11,
0x02e011f1,
0xe9edebed,
0xeb03e608,
0xf622fced,
0xee37e408,
0xe7e602fb,
0x0a2fe3f8,
0xe31cf3e2,
0xdfdcfa3d,
0xef05dee2,
0x04f601f2,
0xfdfcf4e1,
0xe4eb06ff,
0xf306fb0b,
0xfb10f2fb,
0x050df6f3,
0xf612fbf4,
0x0b0903ef,
0x03f9f0ef,
0x0a15ee10,
0xfa1d14ef,
0x070af1f9,
0x0303f90b,
0xfa0bf9f3,
0xfbb550e1,
0xf9fbf3f0,
0xeed2edff,
0xf0fef202,
0xfe1e2503,
0xf00bec05,
0x0516fff1,
0x0432ff17,
0x0122f31a,
0xfdf3fb04,
0xf4f9fd0d,
0xf1edf6eb,
0xfeca17fe,
0xed0a0300,
0x0fe4fc0b,
0x09d4fde6,
0x04c326d0,
0xf504f7f3,
0xf392010d,
0x0d9f0ba3,
0x01a81a81,
0x01090900,
0xf9c905fe,
0x0bfb05cc,
0x04e6f8a6,
0xf4f20afb,
0xf6eb0002,
0xf5f2fedf,
0x03f61014,
0x030c030b,
0xf0e0f20f,
0x0df7fff6,
0x05f300ec,
0xfb0200f8,
0xf7f005fb,
0xf9e1f70a,
0xf530ee01,
0x02ff00f3,
0xf71dfe0b,
0x083306f3,
0xee38f4e9,
0x02f30a08,
0x01f4f20a,
0x05ebf9dc,
0xf1d9f9d1,
0xf9fef40f,
0xfee70909,
0xf0c9f50b,
0xfef8f9f0,
0x0f02f808,
0x0705fef0,
0x0c14f316,
0xf401eae6,
0x1007f309,
0xfc030009,
0xf1110223,
0xf334e4ff,
0x0bf80ef3,
0x0345ef09,
0x0b230e12,
0xee16e40b,
0xf4080ef0,
0xf408f50a,
0xf3020c16,
0x0cfdf9fa,
0xee04070a,
0xff1dfc06,
0xf30e070b,
0xfa19f707,
0xf205f5fc,
0xfc1c06fc,
0x10220d17,
0x0b18f714,
0xf30409f5,
0xfa06f4f1,
0xf22df209,
0xf717023a,
0xeef503f3,
0xf71afdf1,
0x0a1c0a3f,
0x0917fa39,
0x0800ee08,
0x0c1af7fd,
0xf63d0f40,
0xfa19fd3e,
0xff01fffb,
0xfa1ef4f4,
0xf52a0e23,
0x09fa0a2f,
0x0bf3eeee,
0x0b01f2f5,
0xfefc031a,
0x0c1cddfa,
0x07edf60a,
0xec11f6f8,
0x022bf517,
0xfe31f628,
0xfffa0a00,
0xf22d0cf2,
0x00290b21,
0xf74cfd1d,
0x0c090d03,
0xec12060d,
0x0d2af3fe,
0xf3f6ecbb,
0xf9f5f4f0,
0xefe00800,
0xf7f106d6,
0xeedafcc5,
0x00f7ea02,
0x0627fef0,
0xf212f516,
0xf8160329,
0xfafcf8f5,
0xf307f2f7,
0xf0e5f9c8,
0x09ef290e,
0xf9f8f0f7,
0xf5060902,
0xf30df020,
0x0b6bccfb,
0xfc0b0b05,
0x065f05ff,
0x014ef21f,
0xeb45bcf7,
0xfe04fbf8,
0xeb2f0bf7,
0xfd330600,
0xeefcecda,
0xff0bf00a,
0xf1ebfc0a,
0xefd607ef,
0x05dd23ff,
0xeef902fb,
0xeed3fb0d,
0xf7bf0b0f,
0x093f06e0,
0x07fef6ed,
0xf91efbf7,
0xf3390452,
0x057fa4fe,
0xf6fb01ea,
0x0c6405fb,
0xf3430846,
0xf81dc130,
0x0dfcfaec,
0xf03aebfb,
0xf11df71f,
0x03fada11,
0xf5090702,
0xfce4f4ea,
0xeff1ffd1,
0xf8e809dd,
0xf7f502ed,
0xffdb04ff,
0xee0309ff,
0xf00bef17,
0x09fdf2fa,
0x070c09fb,
0x0e1ef513,
0x09eae838,
0x040af802,
0x051df4f3,
0xf6260418,
0xf5fcec15,
0xf7e9f709,
0xfb14f904,
0x060c06f0,
0x09ed0e15,
0xf503000d,
0xec14f4f9,
0x08f8f904,
0x0307ece4,
0x03fafc0b,
0xfdf2feff,
0x0200f4f2,
0xfd20dae2,
0xfbfd0ef3,
0x052af7f9,
0x0c26ef1e,
0xfd41d6f7,
0x07070b0b,
0xee38f1f1,
0x001105e0,
0x00cd01f4,
0x0306ef0e,
0x04ccefeb,
0x09c0f3d8,
0x01d028ee,
0xfdf0f7f7,
0x0003edea,
0x0eeaf60b,
0x0ef4ee0e,
0xfb07fa00,
0x0c100506,
0xf2f7ef14,
0xf407f01a,
0x090208fb,
0x08260207,
0xf33feb2c,
0x047fae2c,
0xee0900fb,
0xea4909fe,
0xf921020f,
0xebc6d7f2,
0xefed0aee,
0xfea2080a,
0xef9d05d7,
0x00855dcb,
0x030208f0,
0xfafa0208,
0xf105f901,
0xee24d001,
0x02f5edf9,
0x0c0df40d,
0xeb220924,
0xfa15d640,
0xfc0d0504,
0xfc65effd,
0xf43afb3c,
0xee2ae87e,
0x0df704f7,
0xf9250c09,
0xf40ffe32,
0xf40b0e43,
0xeaf2f2fd,
0x00f300fd,
0xec1606fd,
0xfcfb0ab8,
0xf6f8fefa,
0xf90c08fc,
0xfdf9f6f3,
0x04f40f14,
0x01faeffe,
0x06fceef1,
0x0cd007cf,
0x07ac0fe8,
0xfbea0eed,
0xf8abff05,
0x00b8f0cf,
0xef11e1d8,
0x05ecf105,
0x0a190009,
0x0e14eb13,
0xf43de917,
0x0beef0f1,
0xfe45ed0e,
0xf335ee09,
0xef0cd315,
0xffedf3fa,
0xebe9f8f2,
0x02f0fa10,
0xf818e9ef,
0x01fdfe03,
0x063805ef,
0x0c1df03d,
0x0d42d70f,
0xea07f500,
0xf330eaf6,
0xeb3af727,
0xfa23eb07,
0x05ec0108,
0xf213f802,
0xf402ef1d,
0x0506d4dd,
0x040b0c0d,
0x0ef0000c,
0x03030516,
0x0719c00a,
0xf8ef03ec,
0x09fd0d0a,
0xeefb02e4,
0x04f804fc,
0x03fefef0,
0xf9f1fff2,
0x040efde4,
0x00e3fd09,
0xe9eafded,
0x0df3fb05,
0xf3d9f3ea,
0xeac526cd,
0x070406f6,
0x0cf3ff07,
0xf60bf8fd,
0x0e1105f9,
0x0708f5ea,
0x0c0cfe0b,
0x0d0e0d0c,
0xea0be40f,
0x0807feed,
0x0b01f0f6,
0x1bddfeed,
0x1adb0cd5,
0xf1fb1c09,
0x07fdf90a,
0x13e1f408,
0xeecae2cf,
0x021a180f,
0x01fb16f2,
0x09dd18e9,
0x09bdefc9,
0x1bffee0c,
0x1af30512,
0xf2cdfcdb,
0x00da2104,
0x08050910,
0x0c001907,
0x01d70e09,
0x051b0634,
0xf41b160a,
0xf3051a1a,
0x17210624,
0x123fa1f9,
0x06071819,
0xf03b0218,
0xf1451942,
0x094db213,
0xf4f3fa0f,
0x0c3ff50d,
0xf53d0158,
0x161eef09,
0x0017ef14,
0x000b1000,
0x03be00cf,
0xf6a5190c,
0x1100f919,
0xf1d1f90a,
0xeec60627,
0x1753f824,
0xf5f5110d,
0xfc39f50d,
0x0a320b26,
0x02f01026,
0x0108f4ff,
0x040106f1,
0xf1fff4e4,
0x0e863fff,
0x0a0d02fd,
0xfde4fe07,
0x17e4eef9,
0xfda3312d,
0xf51bee0b,
0x06ef1711,
0x18d1fbfd,
0x1beb411b,
0xfa0d0514,
0x0eee05f5,
0x0217181c,
0xf827072e,
0x15f301f6,
0x12dffbf0,
0x17d5f9ea,
0x10ed5800,
0x04f7f0ed,
0xf8eb030a,
0x03ea0c07,
0x0b2be5ac,
0x190c15ef,
0x13f40b0a,
0xf0eaeebb,
0x08930bbf,
0x0ffa0d16,
0xeb81f2f9,
0xedb30b8c,
0x0dd43ead,
0xf1031bfa,
0xf4e415fe,
0x13d4febc,
0xfae723e4,
0x19ff1116,
0xfece00f7,
0xf0c309de,
0x0c1801f7,
0x141aeeef,
0x1a3b0212,
0x093bf249,
0xf369e260,
0x10fff8f7,
0xf25e070c,
0xf95df65a,
0xf136c809,
0xf1fd07ed,
0xfff9f111,
0xfd0a17ee,
0x06eae184,
0x17f5f704,
0x01c51510,
0x09e00ceb,
0x04ec02ea,
0xf90cfd07,
0x192612ff,
0x071a1bf8,
0x15100b0b,
0x1219190f,
0x17f915f8,
0x1af701ee,
0x00da1319,
0xf71c2208,
0x11defe02,
0x0bd4f6ef,
0xf8db0beb,
0x1d1b0f0e,
0xfbd6fe0e,
0xffe510eb,
0x1f10faf2,
0x1ff91c01,
0xfd0214ff,
0x032d18ff,
0xfe33f005,
0x0e190110,
0x180d1709,
0xf8130dfd,
0x0ef1251a,
0x20fd1e09,
0x0fed0c0f,
0x04f60bfa,
0xf7fb010d,
0x1d17f71f,
0x04031d03,
0xf5f20935,
0x1f3ef71f,
0x00fc1810,
0x0a360520,
0xf7470e22,
0x0221daf3,
0xff10201a,
0xff140b21,
0x10f907f9,
0x0bf61ef0,
0xfc0c0006,
0x020b03f7,
0x0110fd27,
0x122b1e01,
0x1705fd18,
0x09f8f5f9,
0xf8031409,
0xfdd52d0d,
0x1d0aff11,
0xf6c11dfb,
0x09dd1229,
0x181b2647,
0x06fd0e16,
0x033d151e,
0x01401c22,
0xffe80041,
0x201afd07,
0xfae10f19,
0x19e40ce9,
0x09dc40fe,
0x091ef71d,
0x18e50a1d,
0x091b11e8,
0x03c84d1e,
0xfb17180a,
0x109804f9,
0x19ad0bcd,
0x11815803,
0x20090b04,
0x1ba51e1c,
0xffd212e0,
0xf8072125,
0x21150e13,
0x04f70aff,
0x02b5f5c6,
0x0db73629,
0x04fe0c0c,
0xfaa81a0c,
0x0abd12ec,
0x15fe36ef,
0xfbfc0713,
0xf5fe1214,
0x0ed21bee,
0x0ec016cf,
0x03180314,
0xf9b9210d,
0x10930ea6,
0x02d02a93,
0x080212f6,
0x15e70bf7,
0xffdf21a4,
0x1ce62902,
0x131e0419,
0x04cafc10,
0x1bc5f5dc,
0x13e41cb1,
0x1b091112,
0xfac309fb,
0x10d31dfb,
0xfd1e1ddb,
0x17090406,
0x02df1612,
0xf8eff6f1,
0x14d91aed,
0x0cfa0d13,
0x12d2fa06,
0x00e008d2,
0x07ea10c2,
0x02fd12f4,
0xfdf10501,
0xf1f9fca2,
0x19db19b4,
0x0d06effa,
0xff15fa06,
0x19f4f1f0,
0x0b460426,
0x080c0ff8,
0xf925fe10,
0x051f0a36,
0x0445ed51,
0x0606f4fd,
0x0ff305f8,
0xf9cef022,
0xf239cfd2,
0x06f805fa,
0x103b020a,
0x0722fa2c,
0x175aadcc,
0xf303f502,
0xfa17ff04,
0xf914faaa,
0xefac0696,
0x0c100ef7,
0xf0dc0b07,
0x10e0f1a3,
0xffd62ac9,
0x05030b0f,
0x0f1e18f3,
0xf6fc150e,
0x0a30fc54,
0x000ff206,
0xfb2616f6,
0x0c0afb3e,
0x0509df39,
0x00fcee0c,
0x0e2c0f01,
0x0d33195b,
0xfa6bd34b,
0x07120404,
0x0c7f090c,
0x0b76f040,
0xf431e60c,
0x080d17ff,
0x141602ee,
0x041dfff4,
0xf6d91fe9,
0x08ef0e06,
0x08c7fafc,
0xf6d8f8f2,
0x09f916f0,
0xf4f10c12,
0xf6d4f216,
0x00f2ff11,
0xf41116e0,
0xfb01f411,
0xf90cf10d,
0x0d1af839,
0xf145e8f7,
0x09ef06fb,
0xf0510df0,
0x033cf6e6,
0x18cf0129,
0xf609f8fc,
0x11060718,
0x14f30dcf,
0x13ce2eda,
0xfaf618f7,
0x0ebb01f1,
0xf3e4edc3,
0xf7c545c6,
0x1611140a,
0x01d904f9,
0x04cc07de,
0xf90f1624,
0xf7121412,
0xfb2707f3,
0xef19f44a,
0xf253db38,
0x05fcf20e,
0x0830f1f0,
0xfa38082e,
0xf438bcfa,
0x020e1701,
0x1725f30c,
0x0c2dedfc,
0xf00de9d4,
0x14fcf616,
0x18e208f2,
0xeff8f7fe,
0xeff70fd1,
0xf907f60d,
0xf7151411,
0x00161112,
0xfe18f60b,
0x09151216,
0x140f0908,
0xf801ff0b,
0x00fc0bfc,
0x16ff01fa,
0x0edfff14,
0xfce9ffea,
0x088132e7,
0x05150df8,
0x019c0202,
0x07bb02dd,
0x09d92eeb,
0x0afe0108,
0x13020805,
0x1514fd01,
0x0b35e41a,
0x12ff0309,
0x091705f8,
0xf9150008,
0x07fd142b,
0xfa0b01fd,
0xfb11f902,
0xfc22002d,
0xf6dc021c,
0xf7f605f9,
0x12e90514,
0x05b00305,
0xfae215ea,
0x0b0f00fe,
0x08cefa04,
0x0503fef2,
0xfce7f6dd,
0xfb030af9,
0x01eb0301,
0x06c911ed,
0x16e61f24,
0x120507fd,
0xfdf4fdf6,
0x06eefce9,
0x0eea33fa,
0xfefcf8fe,
0x0bed1213,
0x05d507e2,
0xf8913211,
0x02f9fc09,
0x0da40005,
0xf6d105f7,
0x120a2e13,
0x0b15000c,
0x14100b0d,
0x0b0dfddc,
0x05de26f1,
0x04000100,
0x07d9ff02,
0x0ad10e06,
0x08f216d6,
0x05fd12fa,
0x00ec1111,
0xff0b08e5,
0x05d6151a,
0xfafdfffb,
0x05b3fc11,
0x10ac14e3,
0xfad221ff,
0x1210f800,
0x03df0e0d,
0x0c03f920,
0x1527e4e4,
0x13ff14f7,
0x0d0514fd,
0x0eef0303,
0xf6fbff1c,
0x050a0e13,
0x1002f809,
0x0c020412,
0x1609031f,
0xf6120c02,
0xfbf0fc04,
0xf903f6fc,
0x02cc26e6,
0xf60f0616,
0x12db0b03,
0x05d00eef,
0x0aeb20fe,
0x020f0d01,
0xfff00cfe,
0x0cf902ff,
0x09f1ff4f,
0x0f12140a,
0x0be1140f,
0x03f30f29,
0x15fc05f2,
0x08fbfe06,
0x12f30b15,
0x16160105,
0x00070f17,
0xf7ef11fc,
0xfcf40bfa,
0x14fe15e6,
0xf6df31e0,
0x0af21308,
0x0eec10f9,
0x09e906f4,
0xf7e407c0,
0x030cff05,
0xf0e7f9ef,
0x000f13bc,
0xee1919dc,
0x01fcf9f1,
0x140df008,
0x0d320309,
0xf751071c,
0x11f704f6,
0x05460c03,
0xfc331524,
0xf32bef3f,
0x070e0212,
0xf7dc1012,
0xf7c0f9f6,
0x0aeefabe,
0x1007f6f2,
0x090906f6,
0x030e0cf5,
0x0930e5d6,
0x130a170a,
0xf00b0df7,
0x0506fec5,
0xf5cc0b86,
0xef00150f,
0x0cd10f0a,
0xf8e2fdba,
0x01ec00c1,
0x13f3f113,
0xf504ee0c,
0x0a241108,
0xfb11003a,
0x1612f812,
0xfa070c0d,
0xf700f514,
0x0208fa15,
0x10f9f511,
0xf937f40e,
0xf54cf932,
0xf86ed035,
0x10030615,
0xfd7f0000,
0xf963034d,
0x0635ce20,
0x00f403f0,
0xf20a0213,
0x0016f900,
0x0ccd21eb,
0x0bfd0cef,
0x09cf1305,
0x05d20105,
0x15fc1d00,
0x09150912,
0xef07f605,
0xfbf8f50b,
0x0a06effc,
0xf7030ef0,
0x0e0e03fa,
0x162bff1c,
0x073ae9e7,
0x02130913,
0x0c2cfaf1,
0xf808f3d2,
0x05b7164e,
0xf7120f12,
0x13f8f2fd,
0x11dd10ca,
0xfbbd41e2,
0x05fbf111,
0xf9be0bf7,
0xf1cdf4c6,
0x04d628ce,
0x0cff0013,
0xf5ec1316,
0xfef6f417,
0x0e2af31f,
0xf70afafe,
0x0d260300,
0xfb360122,
0xf535f30b,
0xf1030c13,
0xf10ef408,
0x0710f623,
0xf134e0f8,
0xf0fe0e11,
0xef0b110c,
0x1019f9fa,
0xee06ebfa,
0xf6fc0a02,
0x0a05140d,
0xf1fef9ec,
0x0d0818f8,
0x1708f5f5,
0x08ed1313,
0xfc1216df,
0x20d143f0,
0x140a151e,
0x12d40010,
0xfef4ffc9,
0x1cb347bd,
0x0b00ff01,
0x139dfcfd,
0x1dd4f8cb,
0x1cb247ad,
0x15f51005,
0x16d9181b,
0x21f2fecf,
0x1f3d21d8,
0x17f60b0d,
0x181a1a1b,
0x08451815,
0x09440b20,
0xff180a1e,
0xfdd80f1e,
0x18dd00e1,
0x0cd136ca,
0x19f60302,
0xfed4ff15,
0xfed518d9,
0x1100f4aa,
0xff031508,
0x1fdff5fe,
0xf9e9f5bc,
0x15c62a81,
0x1f0617fe,
0x09cdfd00,
0xf9ff1ac5,
0x0cdd328b,
0x130ffc04,
0x13fa110e,
0xf9f3fac8,
0x19fe2efd,
0x1e0c09f5,
0x12190818,
0x06190f34,
0x0735d9d9,
0x1912f618,
0xfb390e18,
0xf8370746,
0x0f1afb13,
0x0bfb2108,
0x00400901,
0x012c0a16,
0x0b35011b,
0x1cf6130f,
0x1d1203fd,
0xf40aff07,
0x00e024dc,
0x21fef701,
0x1ed32117,
0xf4e8210a,
0x11f52ee3,
0xf7211402,
0x06f3fbfe,
0xfef504f7,
0x1de246f7,
0x0ff6f80e,
0x12141419,
0x0e21124e,
0x0a31230c,
0x000f09f7,
0x0d580b03,
0xfc62141b,
0x17370a4c,
0x15f71611,
0xfa1c0f0a,
0x18fd17ec,
0x19933d25,
0x211d09f6,
0x07b91019,
0x06bf11e0,
0x1cd26202,
0x07170007,
0x15bcfdf6,
0xf7dc07ce,
0x00dd33eb,
0xff1d0cfe,
0x19e8141e,
0x03dff3e0,
0xfce72d1e,
0xf7fc0ffc,
0x08fb081a,
0x13010ee1,
0x14d03647,
0x11f72019,
0x18d50523,
0x12dc22ea,
0xf8f130de,
0x2220f51d,
0x06d41915,
0x07fa11f2,
0xf5ff2fcd,
0xfb15fe0d,
0xfffa13fa,
0xf617050b,
0xfb10fa10,
0xfc060115,
0x0e0015f6,
0xf7f6001a,
0xfe0df522,
0x0406faff,
0xf93a120b,
0x132a013d,
0xf552c023,
0x160ff507,
0xf421f401,
0x0917f313,
0x03a0160b,
0x0df3f206,
0x08c101f2,
0x0cc3fdf9,
0x12a44eec,
0x0f14fbf1,
0x13180bf5,
0xff210bea,
0x11ed000d,
0xf6f8fc08,
0x13000208,
0x120df4fe,
0xfccf122e,
0x130af3ff,
0xf327f9fc,
0xf91af73d,
0xf929f27f,
0x01110109,
0xfc13ff00,
0x13ff011e,
0xfbb2320f,
0xf3fbf8f3,
0x0191f3f1,
0x0cb111d3,
0x05ce4fa6,
0x0d0a0ffe,
0x01f0f708,
0xf21000fb,
0x12000a26,
0x0cfd0cf8,
0xfcf2fffd,
0x11d7f7dd,
0x0fad2def,
0xf3fdf2f5,
0x0f9afb07,
0x14b40e06,
0x0e14f908,
0x0312f40f,
0xf300f80e,
0xfc0dfa0c,
0x041e0625,
0xf80f0511,
0x15f513fe,
0x01fe06fa,
0xfcee05ea,
0x0d0df109,
0xf2fe0113,
0x13130cfe,
0xf5eb0f13,
0xf115fe03,
0x0cde10ff,
0x01d3fad0,
0x05ae2dfc,
0xf8090af5,
0xfccd0af3,
0x0fd512fc,
0xf31709f9,
0xfdf10e05,
0xf5f606f1,
0xfdf6fc0f,
0x081ede19,
0xfff20f12,
0xf2091504,
0xfceaf61f,
0x0211d905,
0x0cfa04f9,
0x140605f7,
0x072305f6,
0x0ae9fef4,
0x0a0afcfe,
0xf3d813fe,
0xfac6f7b1,
0x139230cd,
0x15050afc,
0xfcbdfd07,
0x04bd0ab8,
0x07d132e9,
0x090bfe03,
0xf4de07f7,
0x13f8f51d,
0xf514f226,
0x0f10f5f1,
0xfe2f0504,
0xf531f210,
0xf52adf2d,
0x040f00fd,
0xf615f703,
0x021f0807,
0xff050a1c,
0x00ef0ffe,
0x06040609,
0xfb0c0c0b,
0x0c1f1123,
0xfef00cf5,
0x0705fd00,
0xff0bf007,
0x02fc16fa,
0x0d010907,
0xf3eb0307,
0xf5080bf3,
0x01f107e2,
0xf9fdf9f7,
0xfae4fef2,
0xf31009db,
0x001203d5,
0x0eef0c0c,
0xed0703f8,
0x0f0d0eeb,
0x04f632fe,
0x06fdfb0c,
0x0ddf0103,
0x0efd00db,
0x05db0af6,
0x0ffcf603,
0x0ef20af2,
0xfcbdf1f6,
0xeef228d9,
0xfff90507,
0xf8e3f603,
0xf119f4f2,
0x0102e69c,
0xf4fb0602,
0xeded04f6,
0x00fcfac6,
0x0cb816c7,
0xf0050000,
0x0b00f8fc,
0x07f8eef1,
0x09e426e9,
0x04fcfbfc,
0x10e9ff0f,
0x02b00df3,
0x0af10ced,
0x010df900,
0x0cf4fbf0,
0xf001f02e,
0xf57fbf02,
0x09f9ff05,
0xee4ffe08,
0xef2c08fc,
0xf2fbc700,
0x0b0df1f0,
0x0006fa0f,
0xf0df00d7,
0xf9c50efa,
0x02fbfaf6,
0xf1ef0604,
0xf608fbea,
0x05bb02ed,
0xfb0b0503,
0xf6bf0b06,
0xfcc1f4fe,
0xf028f010,
0xf1f904fc,
0x0a420bf3,
0x0248103e,
0xf864d242,
0xf80b00f9,
0xfb3cf3f8,
0xf8fe0d2b,
0xfedffd35,
0xf202f50a,
0xf7e009f3,
0x0fd40d07,
0xfefe1915,
0x00fc0ff2,
0xed0703f2,
0xf1f2ef06,
0x0fca0dea,
0x0df60e03,
0xf8c4f5fd,
0xffc90cce,
0x0fb21ee5,
0xf3eff8f3,
0xfcd6f3f7,
0x0bf5feeb,
0xf1dc3c37,
0xf701f80a,
0xf0e10ff5,
0xf407f722,
0xfa012023,
0xfd04effb,
0x0d1dfc09,
0x03070dfd,
0x0e061207,
0x05030803,
0xec06f105,
0xfbf508fe,
0x0204eefb,
0xebfbeef6,
0xf510f20b,
0xf02607f3,
0xfa2a05ff,
0x06f3ef09,
0x0119eeed,
0xf73402f2,
0xf2061906,
0xf4fff0f4,
0x00f5f2ff,
0x0515f9fe,
0xf4e908de,
0xfcf5f907,
0xffedeeec,
0xf0f2f7f2,
0xf3d623f2,
0xeff3f9ef,
0xf5fcf2f0,
0x00030703,
0xec06000b,
0x00f3fc0b,
0xfcfdef06,
0xfc00fbe4,
0xf4ee03e6,
0xfef8f80c,
0x00daeb04,
0xeee604d9,
0xf0d606cb,
0xfc010bf5,
0xf4d7f605,
0xeaf503bf,
0xf6e704bc,
0x0408f009,
0xead004f4,
0xfed506c6,
0xebd60cd3,
0xf9fd0c08,
0x0cfb05f0,
0xf1e901f3,
0xfcd40b0b,
0x07fd09f7,
0xf5dbedf0,
0xfcd6f100,
0xf405f7e5,
0xf6f002fb,
0xf20ff6f5,
0xf42ffc1a,
0x036bc3e6,
0xf5fff50b,
0xf435f5f2,
0x0c22f404,
0x0908d4e9,
0xf802fcf5,
0xf50ff102,
0xf9fdf808,
0xf816e20d,
0x02f5ff00,
0xffe9fffc,
0x02f4f208,
0xfb04eded,
0xef07f6f0,
0x060f0802,
0xef2b074a,
0xfa75c20c,
0xf001ff04,
0x0c7fedef,
0xf95af225,
0x0229cf2b,
0x01f90cf9,
0xf6220c02,
0x0b00011d,
0xf1faddf7,
0x060c05ed,
0xf819fcfb,
0xf5260511,
0xf316dd1f,
0xf609eaf6,
0xf0f90bf6,
0x0c0af312,
0x0415000c,
0x04eef5f9,
0xf100eb02,
0x0521eb11,
0xfb1bff37,
0xf0eb090b,
0xf41cf900,
0xfc25052b,
0x0601fc39,
0xf2f6fef8,
0x0a370502,
0xfd2a0934,
0xfc1e1821,
0xf5f30bf1,
0x03110600,
0x032c0311,
0xedf1f61b,
0xed1201f2,
0xeee2ed05,
0x14e518e5,
0x00ba4ed5,
0x070df7f6,
0xf1c1fd0c,
0x11b3eccc,
0xfabdf5ba,
0x0811f006,
0x06c40217,
0x070ef8bf,
0xeb38ddd9,
0x13f31618,
0x0b370d0c,
0xfd2712e6,
0x05061a23,
0xed0b0f12,
0xed281bf9,
0x080df92b,
0xfc0c0f53,
0xf60f04fc,
0x18c502f5,
0xffbef3f0,
0x1217d3ab,
0x1bf01906,
0xeff7f6fa,
0x0214160c,
0xf56fb1c3,
0x00190005,
0xfb4b0503,
0xee5701f7,
0x06d6f6ec,
0x10ffedf3,
0xf9d711f6,
0xf2b1f6d0,
0xf5e23aff,
0xfe0cf41a,
0x1dd9effc,
0xf90dff25,
0x0644f94f,
0xeef6f0fd,
0xf62cfef8,
0x1b18185f,
0xff4ccb2b,
0x18eff312,
0xfd650bfd,
0xee7f0c4e,
0xed53da43,
0x0f06ff05,
0xf17bfb14,
0xfb3ff927,
0xf3b3285c,
0x0b111003,
0x19bc0315,
0x10edf70f,
0x02ed331b,
0xfdfdf2f8,
0xf8d8f3ed,
0xfb04f3ea,
0x170836ef,
0x03020715,
0x17e8ecfa,
0x19010820,
0x183f020d,
0x0f171913,
0x1548ef18,
0xfd3309fd,
0x1717f1c6,
0xef04091a,
0x06da0608,
0xf9e1eba3,
0x10a657e5,
0x0f0a0500,
0xf6b90215,
0x0cd105ac,
0x16cb3dc7,
0x08100903,
0xffaaf1ff,
0xeeca02b0,
0x1adb3493,
0xf6fe14ef,
0xffdf0a09,
0x0505ede6,
0xf1091b22,
0xf0ff10f7,
0x092d17f7,
0x13481c30,
0x0e32f420,
0x12f6fefe,
0x08f7f1f9,
0xfbfdfce0,
0xecf603d0,
0xf6fc0306,
0xf7f3fbf4,
0x08d116d4,
0x0f13cad3,
0x01181a1a,
0xfddaee0f,
0x08edf604,
0x17f7d6bc,
0x0ff6e5ef,
0x090b02fa,
0x05060008,
0x0ffdfe13,
0x11eee8f5,
0xeb03eb05,
0x0805f30d,
0xeedc321f,
0xec02ee06,
0xf6dff113,
0xfef90110,
0xf20410fd,
0x0c0ae4e9,
0xf0fc09fe,
0x0829e905,
0xef00eb17,
0xe7f70be5,
0x09210d0f,
0x12130c1a,
0x16f10208,
0x070af4e6,
0xe9ebf302,
0x0aea07d1,
0x09a63c09,
0xf20df8ed,
0x01a903ea,
0xeb95f9ae,
0x07813be2,
0x07eb16f0,
0x1297ea0f,
0xf2dff9d8,
0x0d05f5b1,
0xedfeeef2,
0xf600e8fd,
0x0b0a0be8,
0xe8c9f215,
0xede8ffe6,
0xebf7f400,
0xebcbf804,
0xebf7fc17,
0x03ed1616,
0xf7e51303,
0xe5b7efdb,
0xf1dc16b7,
0xfbf0f6f5,
0xf6c805f8,
0x0cf80afb,
0xf574c8e2,
0xfa0608f6,
0xed3ced0a,
0xf34a07dd,
0xe6d4f0f3,
0xf8f8f1f8,
0xe9d10d0d,
0xf9d20bf5,
0xeab928e5,
0x14efe8fb,
0x12e30e02,
0xe6f7f90a,
0x0340d9f7,
0x060f03e6,
0x173501fc,
0x04f91608,
0xff36cef8,
0xf0fc09e9,
0x002708f0,
0x0b25eafd,
0x07de0004,
0x0206feed,
0x0ce412e6,
0xefd3e6f7,
0xece61cb5,
0xfaf80b00,
0xebe6effa,
0xeff0fc28,
0xf532fee1,
0x021203eb,
0xee4817ea,
0xf03bec33,
0xef33cb4f,
0x0800000a,
0x0b38f2ff,
0x0c4efc41,
0x014fcd17,
0x0b00ffec,
0xf14deafb,
0x176a133a,
0xf510ec23,
0x1114fe11,
0xf4fcf7fa,
0x1316132b,
0xeee40739,
0x01e902f9,
0xf5f1ee00,
0xffe5ed0c,
0xe9ea4261,
0xf3f80e0a,
0xf9fc0806,
0xe6f8fdfb,
0x0eea0b4d,
0x06fc1504,
0xffedfb18,
0xf5ef0ff3,
0x14ec0afb,
0x02100814,
0x17dd0e08,
0x12e90ae4,
0x07b7fae8,
0xf90d120f,
0x0de314f9,
0xffc702d2,
0x0b9735f2,
0x0ffc0106,
0x07cef917,
0x18baf6d9,
0xf9d33401,
0x0b140417,
0x0ce902f8,
0x0ada0ffa,
0x0f00f427,
0x04feff05,
0x050efb0c,
0x0707012b,
0x0a31d509,
0xf9fe1801,
0x090ff601,
0xfa181331,
0x0c08e41f,
0xf6100d13,
0x0f0afcfa,
0xf7f9f72f,
0x13fcfd0e,
0x11170c0d,
0x06f5fbf9,
0x08e4f60c,
0x10eef425,
0xf713fe12,
0xf9081116,
0xfe10fe24,
0x1650c422,
0x0e000806,
0x0b1b0312,
0x081a0d13,
0x0013f923,
0x0c021518,
0xf717110d,
0xfaf4f8f8,
0x0eb52d1a,
0x17fb180a,
0x0dd4f9f7,
0xf9ff11ef,
0xfac22426,
0x00180618,
0xfdf50dfa,
0x16fe08ef,
0xfae82906,
0x0b170d17,
0xfd00f50f,
0x11111233,
0x0c29e51f,
0x0607fd10,
0xfa0404fc,
0xf5fffff2,
0x0a0621fa,
0x090403f5,
0x0aff1002,
0x0d041405,
0x0816f9d3,
0xfa070502,
0xf9f1f710,
0x15e807f2,
0x12f1fee4,
0x09110a11,
0x12bdf507,
0x08ee00b5,
0x01c43ced,
0xf9fa1611,
0xf5d00d0e,
0x10ef06f6,
0xf8f62e0b,
0xfa08ff06,
0x02d31213,
0x01ef0bea,
0x080efc08,
0x1408070d,
0x060510fd,
0x0e110f2d,
0x0341ea39,
0x0b16f50f,
0x151ef80f,
0x14140e00,
0xfde8f0ec,
0x12fa0a0b,
0x05b513f7,
0x17c10cbf,
0x01d72381,
0x11fa0a18,
0xf3bd0012,
0x07bb16de,
0xfee22ed7,
0xf701f61b,
0x041ef803,
0xf5fe06f3,
0x10f7100b,
0xfd121909,
0x11e910f6,
0x0901f70a,
0x0ddd4a10,
0x1c111ef8,
0x1be4140b,
0x06abfaed,
0x08b938fc,
0x18010114,
0xf9b41dfc,
0x11cff5e8,
0x1f0afce2,
0x00130116,
0xfc0c0615,
0x1711f807,
0x123bf715,
0x0af7160c,
0x0bfd08f5,
0x1012fce0,
0xfdde380f,
0xfc1504fe,
0x06bffd08,
0x0fdf1cf3,
0xf8d918ee,
0x070ef90c,
0xf7ed1613,
0x00e8f81f,
0x081c1512,
0x0bf5fd1f,
0x070cfa03,
0x1629193a,
0xf90efb00,
0x140a051f,
0xf8080806,
0x0bf106f2,
0x0af74009,
0xf8071913,
0x120e1400,
0x02ebf722,
0xfe3c09e1,
0x05f91c09,
0xf50af61b,
0x060d18fb,
0xf8cf26f4,
0x030a0c00,
0xf7cdf91d,
0x1bd414ff,
0x18c14a22,
0x1900f51c,
0x1d120c1e,
0x1ef604f2,
0x19fa0af4,
0x18f70e0d,
0x0def0a14,
0x1d03feef,
0x0bee26dc,
0x021b1318,
0xf4070ff9,
0x1a2c13f3,
0x04f03821,
0x18fafbf8,
0xfbcbfaf5,
0xf3c215cb,
0x1e815024,
0xf70dfd17,
0x1b9d0b1a,
0x14ccf4f8,
0xf910fde0,
0x1f02130a,
0xfcf4ff09,
0xf50d0d09,
0x16091436,
0x0f0c02fb,
0x04f5fa17,
0x0d0cfb09,
0xfc113b29,
0xf61bf60b,
0x0d0f0ffb,
0x09f01600,
0x18ba20d7,
0x1aff0207,
0x00b50bf6,
0x00bc16ae,
0x05d011bf,
0x110d0308,
0xfade1b01,
0x15de00bd,
0xfdf9323a,
0x1af52103,
0xfeb10212,
0x09c907cd,
0x01dd23da,
0x20140efb,
0x1ec7141a,
0x14d91aee,
0x1ceb23ee,
0xef09e7ed,
0xf1eff3fc,
0x00f5f504,
0x060df2ed,
0xeafb0701,
0xf9faf9ec,
0x0bf009f9,
0xfc29f524,
0xece708fc,
0xfc21eee6,
0xfa24eb35,
0x037f9e28,
0x05ec0706,
0xfe4f00e9,
0xf743ee1f,
0xff32c30f,
0xe9f8ede8,
0xf0fd0601,
0xf9fee8ec,
0xefd5f7c7,
0x02ededfe,
0xf804fee9,
0xf2fa09f3,
0x091aee10,
0xe9e706f8,
0xea14eced,
0x0811f509,
0xf821ea25,
0xf9f003eb,
0xf738efff,
0x003ef9ff,
0xf2120537,
0xf706e806,
0xf53f0309,
0xe83af03a,
0x0935fc3f,
0xeffd0af0,
0x093606e9,
0xed370010,
0x0604f4e5,
0xf5f2f309,
0x01fd0af7,
0xfd09f0e7,
0x001b0afb,
0xf1ef0008,
0xe828f4ec,
0x092dfb27,
0xe73dcc0b,
0xe601fdf3,
0xf726f5ec,
0xebf2f518,
0xfd09f801,
0xfb00eeef,
0xfb04f1ec,
0x0814fd0b,
0xec35c7ed,
0xf30aeaf5,
0xeb21eff3,
0x022bf6e4,
0xf5d7f401,
0x05e805ff,
0x011aff06,
0xfa09ed0f,
0xeb1ecfdf,
0xf6efed05,
0xff07fdf0,
0xfe1aedd6,
0xf7d90921,
0xeff4f1f5,
0x01c5060a,
0x08e80afc,
0xfde82516,
0x06f70701,
0xf637e9f8,
0xf424ed2e,
0xf30fee21,
0xfff3ee00,
0xea1fec0a,
0xffff08fc,
0xf8efe7f2,
0x01eae902,
0xf22cedf9,
0x0120fe1f,
0xfc10e501,
0xe804f508,
0x07f501f6,
0xf4ebf4e1,
0xf2c7fdbd,
0xebf3f004,
0x06d500ff,
0x08ebecdc,
0x0001ed9a,
0xe7eaecf3,
0xfe0aeeed,
0x0413f6d7,
0x0112d216,
0xf706eef8,
0xeb07f3fa,
0xfe1eff14,
0x020ef20b,
0x0efb0b0f,
0xf2040b0b,
0xf10bfc06,
0x0405fe12,
0xf9f60cfa,
0x0a1705fe,
0x05f6f31a,
0x05fdfa16,
0xfdf40501,
0xf210f20c,
0xf8000f11,
0xf7f0e80f,
0xfc05100e,
0xef0508f4,
0xffdaf4ef,
0xfdb823f5,
0xfbf2f6ff,
0xf7e4fb09,
0x02defae5,
0xfce316f9,
0x05070ef5,
0xf80ff40c,
0xf120080c,
0xef130e38,
0x08faf8fd,
0x050b0df9,
0x08fb061b,
0x0dd11a3c,
0x020902fc,
0x03fefb07,
0x01061048,
0x0e3dea26,
0xf6f50d09,
0xfafdf608,
0xfc0504f0,
0xfae0f10d,
0xf7f40905,
0xfeed08f2,
0xf8d6fe09,
0xf313ee0f,
0x00effafe,
0x01ddf0f0,
0xf8ea00c2,
0x05ad4126,
0x0d0608f2,
0x03a6fa0e,
0xf681f8da,
0x0cbb30fc,
0x0e04f104,
0xf0dbf700,
0x041bf22c,
0x0557df06,
0xf3f101f6,
0x0a1901f7,
0x0dfb03f0,
0x03c22420,
0x0bfd0705,
0xf1e000f5,
0x08d80b20,
0x081bf322,
0xf1f905fe,
0xf7e10901,
0xf9f10dde,
0xfbe112d2,
0xf4f10508,
0xfce6fd0c,
0xf2cdfcf2,
0x0e0af9ed,
0xfdf4080b,
0x00170709,
0xf41b0a1b,
0xf307fa03,
0xf0050607,
0xfee90b0b,
0x0cde0801,
0x080019d8,
0x010d0504,
0x0508fc02,
0xf81a071c,
0x0821e419,
0x0b020505,
0x0321f30e,
0x0111f820,
0xfc07ec0e,
0xf50ffc07,
0xf6fd07ff,
0xf8100afb,
0xf008fe1a,
0x06070301,
0xf906ff03,
0xf404fa1f,
0xfdfeeded,
0x0a050bf1,
0xfcf4f60d,
0xff050703,
0xf6faf904,
0xfff3f5fc,
0xf118f90a,
0x0214f9fe,
0x0204160d,
0xfefafff7,
0xf4150c04,
0xfa1cf211,
0xf250a220,
0x0008fa0f,
0x0e3aed09,
0x103e042c,
0xef52ea32,
0xf6f30400,
0xf8220d00,
0x0518eb21,
0x0105fd12,
0xe7fafe0a,
0xfbf6f6f3,
0xf50afd09,
0xecf8eed2,
0xf101fce7,
0x03eeea03,
0xeb0b0bd5,
0x03d00fb1,
0xf6ebf5e4,
0x0b28f6eb,
0xe93ceb00,
0xe6f3ee33,
0xe4fa00f7,
0xe7ea0c0b,
0xf4e9ede4,
0x09c52803,
0xf6fdf3ef,
0x0ac7f4f4,
0xf4fd05ec,
0xe94cefee,
0xe4ebecf0,
0xec420be5,
0x0b470334,
0x025fc41c,
0xeb0a00f7,
0xe722ff04,
0xf01d0406,
0x01f5e5db,
0x0dfe0c03,
0x05f7faf0,
0xece3ffe0,
0xf8fb0dce,
0xfd08e9fb,
0xf000ff08,
0xe5e5ebf6,
0xed1ffaba,
0xf5ec08e6,
0xf4f10ae9,
0xeaf3e9d1,
0xffc5e4f1,
0xed04f5f5,
0x0105fdf2,
0x0c090b2c,
0xe827cf0b,
0x09f4f6e8,
0xf44a01e6,
0xff33f12b,
0xfc33bd05,
0xe6fc0f0c,
0xf403fff7,
0xe601ecfe,
0x0d2aeb20,
0xf80de9f1,
0xf10c0bfe,
0xfe1ce9ee,
0xf1e2f300,
0xedfef10e,
0xe4b2f2fc,
0x04d1e5fb,
0x0cf6f5ce,
0x0e0df503,
0xe428fce4,
0xef480724,
0xfb7aaefd,
0xf6fdee0f,
0xea7ffcfb,
0xed72f435,
0xff14cd35,
0xe505e6fd,
0xec05fee3,
0xf2fd05fd,
0xe424d5e6,
0xf7ebe2e9,
0xf808ecea,
0x0a2cff1f,
0xfe25f5fc,
0xfb0a0cfa,
0xfc20ffea,
0x095bf033,
0xee67bcfb,
0xf6080afe,
0xe84a09f5,
0x024af105,
0xe6ddf534,
0xf40a0509,
0x10f4e70b,
0x06d1eaee,
0xf1cd2804,
0xfefe06ff,
0xf019f312,
0xfd1210ff,
0x0d130005,
0xfa0ef6ff,
0x12f6edf4,
0x1203fa12,
0xfefff6f8,
0x14040512,
0x0005060f,
0x03e5f71f,
0x0dd3e32f,
0x0dfff611,
0x0af4110c,
0x04cced05,
0xf4f8e1fd,
0xeff8ef13,
0x0c030aed,
0xf6f801fd,
0x0625dcf7,
0x0515f001,
0x121510f8,
0x0c2f0205,
0xfa13021c,
0xf808feef,
0x1321fef7,
0xf525050c,
0xfef70027,
0x0c14f302,
0x0b1704f5,
0xef2b0d35,
0x06240663,
0xfd14ec13,
0xfe16f608,
0x110f074f,
0x012fee61,
0x1313f3fd,
0x0926f2ef,
0x0a201320,
0xf511d72a,
0xedfe07fb,
0xf80ef8f3,
0x0cfcfd0a,
0xf60602e8,
0x1001f313,
0xf610eff6,
0x1014f1de,
0x00ca14f3,
0x09f000f9,
0xfed211f0,
0x11bc12e4,
0xfe8738fa,
0xf90604ec,
0x14ea03f7,
0x0de41522,
0x104ae407,
0x0a0d0006,
0xfa1cf7fd,
0xf81702f6,
0xf101f5f4,
0x11f3000a,
0xf51a0206,
0xfb13fc04,
0xfd2a0a2d,
0x0ff7eef0,
0xf9ee12f3,
0x10f501be,
0x119f38fb,
0xf0fb0010,
0xef81fff2,
0x10bbef09,
0x0d0915d1,
0x0313fa02,
0xfa16f910,
0x1327f4f2,
0x0413fb3e,
0x0b0cec0c,
0xee03fa0c,
0xef070802,
0xf0072502,
0xeff7060d,
0x1023fdee,
0x05fd0e03,
0xf1d314e1,
0xf8f005f5,
0x05db0ef6,
0xf1aef6ed,
0x09d9fbb2,
0x1212ef0a,
0x0cc7eff6,
0x0edfeccd,
0xecf708b8,
0x09ee0113,
0x0bbbf0f6,
0xf5abf5b6,
0x01e10db1,
0xf60906fe,
0x06dff404,
0x0bc1f8e0,
0xec0707d7,
0xea050b0b,
0xfdeb0bec,
0xeeeaed16,
0xf208fd0a,
0xf006ecf7,
0xe704020d,
0xe515e518,
0xe928c20e,
0xe30de809,
0x0d55feef,
0x0a27fa50,
0xf54ac643,
0x02f7fbf3,
0x0145ecff,
0xed080a54,
0xef1bc532,
0x0b03e7fb,
0xf119fae9,
0xfe00f01b,
0xf3f9defc,
0x0c0209f9,
0xf412e7f4,
0x0a09f002,
0xe421cb19,
0xfaefe4eb,
0xfc35ea03,
0xfc00e412,
0x0005e367,
0xf30ae4f1,
0xfa2df1ef,
0x083be922,
0xf10d0e7f,
0xede8f203,
0x03220b02,
0xf601e541,
0xf92f037c,
0x03f4fae7,
0xea51f800,
0xe453e45d,
0xef34c350,
0xf609fa07,
0x05fc01f6,
0xf7fbe9d2,
0xf4ed2e1d,
0xf4f1f7fd,
0xf8bfe6fe,
0xf1f8ebe2,
0xf5eff323,
0x0f0bf709,
0xf4e4ec01,
0xe2e9f2e4,
0x04c7000a,
0x080ef304,
0xe9c704ef,
0x05ceedee,
0xf2f40000,
0x10f3e6e4,
0x0ff0e605,
0x0c17f6f8,
0xf5e50c11,
0xe50f05e9,
0xe915e4ef,
0x0503e5fc,
0x0d12bff5,
0x04fdf202,
0xf302e6f2,
0xeff504ba,
0xf5c7faf5,
0xfb01e6ef,
0xf7b4ea0e,
0x0bb607bd,
0xebae31da,
0xffe5030d,
0xfeeb08ef,
0xe712f007,
0xf929f2e0,
0x0cedfbeb,
0xfe2400f8,
0xe6161101,
0x0516b8f8,
0x0ef1f609,
0x0e34040d,
0xef3ffd1d,
0x0f33e934,
0xe703ecec,
0xef2d0af0,
0xe604f13b,
0xec1ecae4,
0xedf906fd,
0xf608edea,
0xfce6e6f8,
0xee16b6a2,
0x08f308eb,
0xf72df3fd,
0x072ce6f9,
0xfd28b9f5,
0xe3e5f507,
0x0111f20c,
0xf321061e,
0xfc12d920,
0xffeff9f0,
0x0ef9ed0b,
0xecf50af4,
0xeff213fc,
0x0108f108,
0xfeeff5f5,
0xf2ed0d0a,
0xf908ef12,
0xed00fdee,
0xef1ff30a,
0xfa25f930,
0x0d7fa62c,
0xeefff30e,
0xf735f804,
0x0a2c0121,
0x0222c102,
0x01f10407,
0xefe1f9fc,
0x02e2f804,
0x0de0fdcf,
0x02fd000d,
0xec09060d,
0xf8f8f2ec,
0x07fa12f3,
0xeef7ee0e,
0x00f90e03,
0xffe9f8fe,
0x0a08fb32,
0xfbfbedf6,
0x0432070b,
0xfd46ef3e,
0xf836e071,
0x030ff50f,
0xff4303fa,
0x0246f822,
0x0912ed42,
0xf7020af9,
0x0b1df20c,
0xf3270c16,
0xf7f50cd9,
0x03f7f8f9,
0x040e0d06,
0xeefdfbe7,
0x090bf8fa,
0xf1f802fe,
0x07edf00d,
0x0d2803f3,
0xf828fb02,
0x0fff0a04,
0xfd34f1f3,
0xfc16f23a,
0xf217dc2a,
0xf2f9ef04,
0x0c0ffd02,
0xf10dee24,
0xfc10fe23,
0x0cf403f2,
0x0f18ec09,
0x03f703d5,
0xfede14f1,
0x05010efc,
0xf5fd07fc,
0xf518fb07,
0x0c11fef1,
0x10030eed,
0xecfe08fc,
0xf00401c4,
0x03cd2e19,
0xf5030a0b,
0xfec60cec,
0x0bda04ec,
0xfdd42c32,
0x07ffff0f,
0x0007f3fe,
0xedfe0511,
0xf9f1110a,
0xf5fcfcfa,
0x00f8effd,
0x03ef04f7,
0xef05fae3,
0xf70ef502,
0xf22f0ffd,
0x0dfe0417,
0x03e9edf3,
0x0ff804ef,
0x08e0ef0f,
0xf3bffcc7,
0x0eba1ab0,
0x03f40d05,
0xfdb1f5ff,
0xeea8fca4,
0xffef079b,
0x070b0809,
0x03def509,
0xf7deefe1,
0x0f0ef3eb,
0x0af90504,
0xeef7ff0b,
0x0108fdf3,
0xf201dfeb,
0x06fc04f7,
0xf203fffe,
0x00ff0b03,
0xf8f90ff2,
0xf8f403f4,
0x08f60a0a,
0xf508f402,
0xf31ff1fb,
0xf108f303,
0xf8ff0104,
0x012b0afe,
0xf61211fd,
0x0600fb01,
0x000bf601,
0xfe0a090c,
0xfd19000c,
0x0600eef1,
0xf60ef4f0,
0x0122ef13,
0x0b1ff207,
0xff0bf202,
0xefe8f5fb,
0x0affffff,
0xfa160602,
0xf4fbfff9,
0x021af004,
0x0107030d,
0xfb00eef3,
0xf6fc0cf2,
0x05f3f4f9,
0xf8d6f5d5,
0xfec90cb7,
0x0204effc,
0xfcda05f2,
0xf2eb0aba,
0x03e000c6,
0xfff6f207,
0xef1809f3,
0x08f8f90b,
0xf307f315,
0x03fb0101,
0x09f00203,
0x04e80be8,
0xfde0091e,
0xf3040afe,
0xf1fbfcfc,
0xfbd0f30f,
0xf532f823,
0x0cf60700,
0xf13af1f2,
0xf84d094c,
0xfb7fba02,
0xeffaf300,
0xfc2406f0,
0x0328f8f3,
0xfbdef8e8,
0xf9000af0,
0xf9d2fbf1,
0xfdd5f9ef,
0x09e00410,
0x02ee010b,
0xfee7f7f9,
0x08f8f101,
0xfae0ebce,
0x02ff06f1,
0x07de03f1,
0x06ef0511,
0x0042e701,
0xf8f8f400,
0x0c58f802,
0xff46f40f,
0x051ee053,
0xfcf6f700,
0x02fcf0f9,
0x00f4fa0c,
0x05d825fa,
0xfa0c08f1,
0xf8ec0bf8,
0xf1f805fc,
0xf0ed15eb,
0xf20af8ef,
0x0315fdf8,
0xf90dfb1b,
0x0900f60c,
0x0af8ef00,
0xf306f601,
0x070df11d,
0xf312fe1d,
0x02f5f1fc,
0x0412ff03,
0x02040819,
0xfb08f30c,
0x06f905fb,
0xf412f6f2,
0xf531071a,
0xfc12fe09,
0xf8f9effb,
0x07240809,
0xfe25ef17,
0xf80a0509,
0xf40a0403,
0xfaf80ef9,
0x000efcfd,
0x0ce80e02,
0x1704f813,
0xfce5fd0d,
0x04ee03e7,
0xf4dc3106,
0xf41218ff,
0x13fb0b0c,
0x111f152d,
0x0a62df0e,
0xfe161301,
0xf327f7f6,
0x1145f911,
0x16eee4e3,
0xfd0209fd,
0x12f8f6ff,
0x000804fc,
0xfee509d4,
0x161001fa,
0xfe06fa0d,
0x10e607db,
0xfdc447ca,
0xf6140d16,
0x0ccb0809,
0x04b004c2,
0xfec531f2,
0x0c16fa13,
0x03f21110,
0x152d0748,
0xf67fc80a,
0xf70af3f8,
0x044e1407,
0x0d4e041f,
0x13f9f7f8,
0x04080503,
0x15070afd,
0xfe0ff811,
0x060c0aed,
0xfa0f0c16,
0x11fdf614,
0xfa0203e0,
0xfcce2cf3,
0x0b0e11f7,
0xfcd21211,
0xf4eefc12,
0x1245190b,
0x08000a0b,
0xff420df7,
0x0f660e6a,
0x135dd146,
0xfc160702,
0xfa400110,
0x0f27fe28,
0xfeca2b43,
0x0504f40b,
0x05e90314,
0xf2e7fcf0,
0x05f01dfd,
0x07f414fe,
0x06e7fefb,
0xfbe404d5,
0x16e218dd,
0x030ffd05,
0xf6cc03fd,
0x0ee7febe,
0x00d01b0f,
0x0b090611,
0x10e508f7,
0x0deaf6e8,
0xf7da262c,
0x020f0bf8,
0x12ef1310,
0x02f0f8d3,
0x16c630dc,
0x0211f510,
0x0ee01503,
0x09cdffec,
0x0a022ccf,
0x00fd16f7,
0x041bf6fd,
0xf91a0b31,
0xfb0ddee5,
0x0a1115f8,
0x0c0c06f6,
0x01eb0df3,
0xfd02f9bf,
0x0704fcfe,
0x13e7f80f,
0xfae906c9,
0x0f01edf1,
0xfe05f40d,
0xfffafdfe,
0x10e8fdec,
0x06e22bf6,
0xfa0efdfc,
0x0de5030b,
0x02cb09d6,
0x0dfd35da,
0xf9f0fb0d,
0xf6e70efc,
0xedf301ed,
0xeffc2cfb,
0x030ff114,
0x07f40eef,
0x11e61010,
0xfbd5fbfc,
0x17edff0e,
0x130a1406,
0xfc05171a,
0x08d6fc0a,
0xef0f0b06,
0xfc160a06,
0x17d60f20,
0xf6cefa25,
0xff0305ee,
0x112c08fc,
0xfeeafc2d,
0x15f6f633,
0xf115f30d,
0xfadf07fe,
0xf8ce0efc,
0xfbc62300,
0xf70ef60b,
0x0db80612,
0x08aaf001,
0x06ad10f4,
0x0bf00f0c,
0x08ac080e,
0xf6d70b00,
0x05f4f719,
0x01f4faf7,
0xfcc70bf9,
0xf8b8ffc8,
0xf9ad401f,
0x04faf6f6,
0x11e10606,
0xeddcee43,
0x04401170,
0xf40c04eb,
0xffe714f4,
0xedd2f4da,
0x0ce525de,
0x06f8f010,
0x10a90906,
0x12deee02,
0xf722f601,
0x13f8f311,
0x0508f602,
0x1013f5e2,
0xf9b62e27,
0xfaf403f9,
0x1081f2f3,
0x118703b0,
0xfb8c4ef7,
0x12ef060d,
0x039ef3fa,
0x06c308f3,
0xf51506e3,
0x10160300,
0x0e25ed02,
0xf11ffa27,
0x0213b916,
0xed0e18fd,
0x0c16ef11,
0xeeef04dd,
0xfcc2fdf3,
0x06ed0202,
0xf6d0ee0f,
0x16c207d2,
0x05ca35a2,
0xf9f2fe01,
0xfcc1f5fa,
0xf2cdf914,
0x113a09d2,
0x13f9f811,
0xf6120f07,
0xfd1cef31,
0xf045cc11,
0x0afffbf4,
0x124b0df1,
0xf33cf63f,
0x0f48e05a,
0xf7f013f2,
0xf6410913,
0x0f48f62c,
0xf9091320,
0x06f9140a,
0x03dc060a,
0xebf6041f,
0x13e803df,
0xee090eef,
0x0af607f0,
0xf717f70c,
0xf623e455,
0xfb05ee09,
0x0f3515f2,
0x12260322,
0x0d0cec47,
0x10f8fd06,
0x06e91504,
0x0dd4f3fa,
0xefd511ec,
0x09ee00ea,
0x12d417f6,
0xea1517d0,
0x1201cebd,
0xebff1314,
0xeae3edf7,
0x041bef9a,
0x141c04d6,
0x04f3f316,
0xfa05e8f4,
0xf8fa10ff,
0xf2292717,
0x01f9fa14,
0x132ffb05,
0x092f0932,
0x0f34e13b,
0xe9100b1a,
0x19e31bf0,
0x0409f124,
0x0744aef5,
0x0703f604,
0xf65a14eb,
0x12760347,
0xfd7a9ad5,
0xee111309,
0x034aef09,
0xf80eeeb3,
0xf8a11fa7,
0xf70ef8fb,
0xfad51819,
0x15c215a7,
0xf5ff1fe6,
0xf70af5fc,
0x08080b00,
0x12040a2f,
0xee2ef453,
0x040a12ee,
0xee211107,
0x031a033b,
0xf238db3b,
0xefecf302,
0x0c5313ec,
0x04620a59,
0xf862f241,
0x041116ed,
0x097feb0d,
0xfb49fe4b,
0xec4dde34,
0xf8ee08fa,
0xf80bf40b,
0x0e32021d,
0xf419f407,
0x030210f1,
0x04d5e902,
0x01ef14e9,
0xf8df25fa,
0xedf9010e,
0x06e711e8,
0x0fecfb13,
0xec15fbfb,
0xf21515ec,
0xf42a0b00,
0xf82b0628,
0x1927e808,
0x12ee1015,
0x1827f8fc,
0xf33df000,
0xebee0d3c,
0xfbf4ee15,
0xf61d0a0b,
0xf10afdd8,
0xeeb52df8,
0x0c06fc07,
0xf4cafafe,
0x0bcd16bc,
0xfeb64ea3,
0x13e906f7,
0xeadbe919,
0xebc7f0e1,
0x04d61f21,
0xf60c0cf5,
0x0f02f6f7,
0xefe90e26,
0xe937f6ff,
0xfc101b13,
0x01051af6,
0xf10604fa,
0xf81acece,
0x18fd0604,
0x1513fb14,
0xf7ff03e3,
0x0424b1cd,
0xeefc0a0d,
0xf6eceff3,
0xee1118fc,
0x06f3f0cb,
0x11e7f9e2,
0x1408fe10,
0xf9100efd,
0x18fe2c0f,
0xea100deb,
0xeaf31507,
0x0dfce318,
0xe8020f19,
0xe60be210,
0xfc100fe2,
0xfd230520,
0xff39cb2b,
0x0fe80905,
0xf74af9e9,
0x0f321435,
0xf118db48,
0x19e1ed11,
0x153107f0,
0x08d9f517,
0xfce40715,
0x1513fc15,
0xf6e216f8,
0x0fe8fcd1,
0xeada09f7,
0x0ef803fc,
0x07b0e6e8,
0xf09303fb,
0x02a63ff2,
0x0cfc01e3,
0x10b90e00,
0xf40d05fa,
0xe1040d32,
0xf7f0fbeb,
0xf607f1eb,
0x0bdf0510,
0xea06134a,
0xfae6e5e4,
0x051d04ea,
0x1028f164,
0x0867ab4f,
0xf60ff20d,
0x0dcfe815,
0xe7b502b8,
0x11d020da,
0xe314e6f2,
0x05c1e5f0,
0x0edfe7f2,
0xf45cc3e6,
0xee0ee612,
0xed2bf4e5,
0x0b4cfee4,
0x09dd0f07,
0xe0e7f9eb,
0x05c7e903,
0xe2bdf5f5,
0x0fbe21e4,
0xec0eecef,
0xecd6ff0f,
0xec0fea15,
0xfd0cdb13,
0xf701f2ed,
0xe626170c,
0x14fde73c,
0xf24590dc,
0x0c16fbe5,
0xe51e0ef9,
0x0a360aff,
0x02f7cff6,
0x16e001e2,
0xf7cdf7ea,
0xfbc9ffc1,
0xf49039d8,
0x08020f16,
0xfac50ef8,
0x13fe0509,
0x0a2115bf,
0xeefaece9,
0xe617e8e4,
0x0d05f02a,
0x0037a6ee,
0xebfcfdf9,
0x096ef012,
0xeb6ee536,
0x157be07f,
0x0009e1e1,
0x047509fd,
0xfc45f733,
0xe42edf00,
0x1218ea0d,
0x01e906e9,
0x0e0b140f,
0x01e704ca,
0xf2171609,
0xf62810f6,
0xf1251700,
0x061b0824,
0x04e318eb,
0x1a15f605,
0x1834e500,
0xe9f8f04b,
0x13160dee,
0x18e910f0,
0x0ddce7e6,
0xf6f0ffdb,
0xeaeff616,
0xf2f202ed,
0x00070ce6,
0x0ee4f5bd,
0x0ee615ff,
0xecba000c,
0x02b2128d,
0xf38a2fd0,
0x07eb10ef,
0xeb99060b,
0x1bbf0dac,
0xf20628f1,
0x1dfc0fef,
0x1bf0fde7,
0x1607f4f7,
0xf850e250,
0xfc0d0f0c,
0xefeaf5ff,
0xe9e6fe0a,
0x0e33fd00,
0x03ecebe9,
0x013beb19,
0x0037f622,
0x1e7fb1bb,
0x09160e1a,
0xf246041d,
0x00f816cf,
0xfcc2f982,
0xfc1114f2,
0xfbc9faf0,
0x09c9fba6,
0xf8c301bd,
0x001d0e05,
0x0eddf218,
0xf8b71deb,
0xefee38fb,
0x0ceefc1e,
0x10371715,
0x03100d35,
0x035fba17,
0x1deb120f,
0x1e3ff7fc,
0x0d7e1149,
0x1e26fb2b,
0xedee030e,
0x0d41191c,
0x19fae943,
0x1df20a3e,
0x1a161be8,
0xff0f1405,
0x0e0f0f13,
0xf235e9eb,
0xf91de918,
0xfedb10fa,
0xf5e508e0,
0xffee2eda,
0xf4f41019,
0xf115eef5,
0x170d0c18,
0x06262c20,
0xf8fdee0d,
0x1a061c01,
0xf1f1063a,
0xfcf71311,
0xe9051816,
0xf62c1e12,
0x072c0538,
0x0d28f72c,
0xfeeb0ce8,
0xf6561a1c,
0x1137fa1f,
0xfa151a54,
0xf20af212,
0x0508120c,
0x172c0cf3,
0xf5ed55d8,
0x0ff609fc,
0xf3bff20c,
0xf4c208cd,
0x069370fc,
0xf90ceeff,
0xe9980208,
0xfa9119aa,
0x0dbe3bda,
0x1aea1afb,
0xf0dff50a,
0xede3febf,
0x08ee2c30,
0x11f5fb1e,
0xf8c016e8,
0xf3ccf200,
0xfbe8f5d0,
0xe808fbf8,
0x19effd0e,
0xefd2fae5,
0xf9ed0fdb,
0x1f0908f7,
0xf70af50d,
0xfc03f1f1,
0x09d03200,
0xff13f81a,
0x0ef605f7,
0x07cbfb11,
0x099a22f3,
0x03f3ff08,
0x1ef6f317,
0x0316fc00,
0x053dc0ec,
0x160a161a,
0x06101603,
0x1c3b20ec,
0x14a828e5,
0xf604031f,
0x0edc0815,
0xffbb0de8,
0x02a07a07,
0x00190b05,
0x11ee0a19,
0xfe1010fa,
0x000a02c2,
0x161a110f,
0xeef3f2f4,
0x0de6fb11,
0xfe05e9ef,
0x1214151a,
0xf22df606,
0x1f420b7f,
0xf249df50,
0x071d1119,
0x0443011b,
0x12dff1ee,
0x1fbf13f6,
0x0b151b0b,
0xfc95180a,
0xf4a0fae7,
0x08eb27c5,
0x0f0409f8,
0xfb15f71c,
0x001bfe26,
0xfdff1e36,
0xf6f31d11,
0xffedf0fe,
0x17ce15ce,
0x168f1ae9,
0x1b13fa0a,
0x0ba0fcf2,
0x1bfd13dd,
0xfbeafb0f,
0xfafb031d,
0x02f31900,
0xede11aeb,
0x10bd4855,
0x0e1a1d1b,
0xf2f1091d,
0xfdf71f3c,
0xf131f919,
0x1f03f805,
0x15d61611,
0x0dd609d7,
0xfddc5fde,
0x1a150d09,
0xfc0c1901,
0xfde90540,
0x0154ced7,
0x17f20bf2,
0x1816100f,
0x002cf3c8,
0x05d8eac2,
0xf3030014,
0x08a41afe,
0x0ca005a4,
0x01c92b9b,
0xf40f0bfb,
0x14bc1416,
0x16b902fe,
0x1807f303,
0xfbf30bf9,
0x18c80115,
0x1cd304d9,
0xf90ef3e7,
0xfafb11f1,
0x04f70103,
0x0d22101c,
0x1918053e,
0xf018001b,
0x01361100,
0xf3f8fc19,
0x16ce2b0c,
0x05180a08,
0x13da1bfc,
0x1bcafa19,
0xf3f725d1,
0x01181d04,
0xf4e61f0b,
0x121af302,
0x1a0eea08,
0xeb0c000c,
0x0af8f7fd,
0x08f4fc09,
0xeb0ce5fb,
0xfb070300,
0x0e0eee00,
0xea2df905,
0xf62bf707,
0xff000805,
0xede7f0f8,
0x08f2eaed,
0xf2ce32e8,
0x0808e8ee,
0xefe106e8,
0x02fff803,
0x0a16f307,
0x0bf0ef0c,
0x070cee05,
0x0927fdf7,
0xff1cf107,
0xebecffff,
0xf5fa0bfa,
0x0b000cef,
0xfcecef06,
0x01eef1f3,
0x0dd80108,
0x06d30ade,
0x0bed1db3,
0x0ae9ef06,
0xf8b90dea,
0xf9b300a2,
0xfbb6fe81,
0x0be8ebf2,
0xf0cfea08,
0x0ad7060a,
0xec19eddf,
0xeefaeefa,
0x0d170205,
0x0400f411,
0xee0df81d,
0xf30b0eea,
0xf8f8f2f8,
0xf9fb0926,
0xf31dcac5,
0x0a00fff9,
0xf8330304,
0xfa6e0643,
0x0662e5e8,
0x00f603ec,
0xea42f1f7,
0x022e09dc,
0x01be1f1e,
0x06f40003,
0x10d9ff0c,
0x03d9f80f,
0xf22106fe,
0x07f3f2fb,
0x0d19fdfe,
0xeb2f051b,
0x0d2dd0fb,
0xfd030b02,
0xf31feff7,
0xfe280e1b,
0x004eda1d,
0xf6f301fa,
0xf53ff709,
0xf73106f4,
0xfbd51002,
0x0a0d0202,
0xecbf08f2,
0xedb7fad1,
0xfed61fb8,
0xf1eff3f8,
0x0516f2e9,
0x111ef224,
0x0d5abc0a,
0x07eeebee,
0xfb5ef3ec,
0xf9590e0a,
0x0701d9f8,
0x0aec0300,
0xfefcfd0e,
0xf61605f9,
0x03271b28,
0x0207010a,
0x0b2603ff,
0xfe230935,
0x083feb2b,
0xea060aed,
0xf527f7ed,
0xfb4de93a,
0xf35bdf41,
0x0106f6ed,
0x013affeb,
0x013e061f,
0xf712e942,
0xfc04f2ec,
0x00faec0d,
0x06e505e7,
0xfed6fd0d,
0xe3f30be9,
0x05f0f303,
0xe9f00a01,
0x03e3111b,
0xe6020a02,
0x0f10f4e5,
0x07ddf700,
0x07ff061b,
0x05e603f0,
0x0b1900f2,
0xf625f13a,
0x086fd534,
0xfcfd0afc,
0x084fea0d,
0xf1321230,
0xf703d82d,
0xefe6fafa,
0xfd02030c,
0x07f6f007,
0xfeddf7f6,
0xede8e504,
0xf3ef07f7,
0xf4ee0fdf,
0x06d314fa,
0xe3fb08f7,
0x00f1e3fa,
0xf1bbe220,
0xfbcd1440,
0xee12eff8,
0xe9e8fcff,
0xfa2aea42,
0xeb48c146,
0x1111e402,
0xfe0f1201,
0x0908f2ea,
0xf2af0c15,
0x0debf604,
0x04f30301,
0x09fbe727,
0x1104f31f,
0xe611f5ec,
0xf5bd0de2,
0x0eb20b99,
0xfa926d11,
0xe1e9eeff,
0xf381e7f9,
0x0f920109,
0xf942ec12,
0x0bf1ece7,
0x0c45fe0b,
0x024bfe58,
0x1068cdfd,
0x06faeb08,
0xf110e401,
0xe4eafec3,
0x07930add,
0x0ce210e8,
0xf2bf06f7,
0xf9b6f1e9,
0xf7d60730,
0xe90a0404,
0x13e811eb,
0xfecce6d3,
0xf6ead59e,
0x09f70afa,
0xfee40706,
0xe6dce9f6,
0x0e20c2e2,
0x03f7f70c,
0xf936e40c,
0xe529e513,
0xebf70e06,
0xf900f4eb,
0x0ce7f2f6,
0xe9d6fcfc,
0x070417ce,
0xe800ecfb,
0xfad907ef,
0xf5e6fe2c,
0x0d1ef1f2,
0xe3fee4e2,
0x15550e08,
0x0746f247,
0x0e64ca39,
0xf4f6eeeb,
0xff1f0503,
0xf346eb38,
0x0d29e6fe,
0xe6fcffe2,
0xeef7f4f2,
0x11f20e11,
0x0debd6c3,
0xfff50b08,
0xe101f6ef,
0xf71513fb,
0xef07f910,
0xff0ceaf3,
0x0c0f0be9,
0xf2340d09,
0xf30ef414,
0x08070600,
0xf9eeff07,
0x040d07f5,
0xf708fa05,
0xfc0703f5,
0x0e12fcfd,
0xf1fd0201,
0xf425fa07,
0xfb0204f6,
0x032df0f0,
0xee43f8fe,
0xf643f90d,
0x04eff4f1,
0xfc24f9f8,
0xfd3e0017,
0x0b0df8ef,
0x09050b0d,
0x000006f8,
0xf507fcf1,
0x0ae211ef,
0xf1f40304,
0xf907f4fb,
0xf20afb00,
0xff13f2fa,
0xf8f2f7f0,
0x031af3ff,
0xff0ceffd,
0xeffde9f7,
0xf3f7f9f3,
0x0702f2fd,
0xfef802fa,
0xf9e50dfb,
0x0607f6ef,
0xfc0606ef,
0x000803de,
0x09f605ea,
0xfdf0edfa,
0x030d0407,
0xf01e06e2,
0xf0f3fde5,
0x03f207fb,
0xf110fe03,
0xf713f406,
0xeed10427,
0xfffef505,
0x08fd0407,
0x03c40900,
0xf21bf003,
0xeff0f8f1,
0x0b2202fc,
0x0231fa24,
0xee6cbdc8,
0xf9fafaf2,
0xfb38fb04,
0xf118fde4,
0xf4d306f9,
0xf4f1f5ef,
0xf4e5ff00,
0xfdee0cfb,
0x00f31626,
0xf8f708f0,
0xfaf50cfb,
0x0dd5f7f2,
0xf8d3f9c3,
0x0c09efef,
0x00fd01f1,
0x080a0c24,
0xf155cdfb,
0xfff406f2,
0xfb7f05ee,
0xf569fd09,
0xfd10e04a,
0x090cfaf0,
0x0bec0df5,
0xfccc07fb,
0xf7be19da,
0x05fceff3,
0x02d7f808,
0xfad405fc,
0x0507f3ef,
0xf6fafbf3,
0xef0cfb01,
0x0110ff0a,
0xfd0adffd,
0xf105fbee,
0x001003ff,
0x022cfe09,
0x0c17ed20,
0x03fd0a01,
0xfb1008ee,
0xf30c061c,
0x05fff6f2,
0xfaf0f9f9,
0xfc2cf5f3,
0x0435f928,
0xf73feaf5,
0x050d0109,
0x0d420906,
0x08340416,
0x0213dd0e,
0x05fefef3,
0xe9f917fc,
0xf4e304f9,
0xf8e52511,
0x0feaf40e,
0xf0e1faf6,
0x0a040716,
0x0501f0fa,
0xfff1f3ec,
0xe80feb09,
0x01340df9,
0xf273d90e,
0x0e0a1703,
0x15fb0dfa,
0xed2bed31,
0xef4405c0,
0x10131804,
0x01dcfaf3,
0x130416e0,
0xefec1fb2,
0x13161414,
0xeceafc08,
0x0ae014f4,
0x0424dade,
0xea160d01,
0xf7200915,
0x0b5bf600,
0xfb3fd512,
0x0b150f0f,
0xf418f2ea,
0x11ef0212,
0x12ac2e55,
0x0002fff4,
0xf7181002,
0x0236e93a,
0xf668ffeb,
0xf40cfdef,
0x1025f201,
0xfb50fdc4,
0xf1bc2c8e,
0xf01803fe,
0x0d2302f0,
0x153e0732,
0x1141d839,
0xfb170404,
0xfe3b13e9,
0xf7fd08f5,
0xfcbcd4ca,
0xedee02f3,
0x14c108fe,
0xf2c1f6dd,
0x0d0cf6aa,
0xf9e91311,
0x032bfaf3,
0x0c23fed5,
0xf21cd6ef,
0x000af7f3,
0x1414f3e8,
0xefe5f9fa,
0x01ecfc25,
0x1614070f,
0xf700f6ee,
0x0a12e824,
0x03f3f6e0,
0xf303f9f2,
0xee401718,
0xec42165c,
0xf65feb1c,
0x0017f2fb,
0x157df104,
0xfb7b0d1f,
0xf00ef846,
0xe805fff8,
0xfdcef817,
0xf081fac0,
0xec8137eb,
0xf6fcf5f6,
0xe9aaf3eb,
0x09a30a1a,
0x0a37d604,
0xfd01fe03,
0xe5b909fa,
0x0cd417eb,
0x0de303ec,
0xfeec140b,
0xffe3f1f5,
0xfcc4fed6,
0x06ae1c01,
0x12f503e9,
0xedb7f2fb,
0xf7bc07ae,
0x18bc49c9,
0x06fcf615,
0xedc80d18,
0x0c08fe1e,
0xf355f6d2,
0x11120214,
0x0a350412,
0x0650173e,
0xf347cf14,
0xf50df0f8,
0xf709f80f,
0xf8fbff0e,
0x01f7090c,
0x0d0c110c,
0x101200f6,
0x0fe8f409,
0x14f5eced,
0xfbf6fd09,
0x04fcf0ee,
0xeee00e02,
0x0e0dfcf7,
0x02130005,
0xf6ef0ff6,
0xefea04eb,
0xf5e7ed10,
0x10f5f1f1,
0x09ddfb0e,
0xf9e50fff,
0x10fd03f8,
0x0ff2fcff,
0x0d1dfb05,
0xfffef0f8,
0x02f7f5f5,
0xfafe0004,
0x040307f0,
0x1210f005,
0xf624f508,
0x1112f607,
0xff3810ef,
0xef2afb39,
0x0e2bf846,
0x0afeff09,
0xfc25fdf2,
0x05ef0713,
0xffea1131,
0xf8fa0a10,
0xf5ed02fd,
0x13dff60e,
0xf7f207f3,
0xf102fd0e,
0xfc20f5ff,
0x06220319,
0x0741d8e8,
0xfbfced0a,
0xee16f3fc,
0xf641f20b,
0x08e802ff,
0x01f5f0f2,
0xfed011fd,
0xf0b70dcf,
0x0e86333a,
0xf50bf101,
0x06dd10ff,
0x08f6fe36,
0x034a0526,
0x1202f001,
0x1320010d,
0xfc410e03,
0xf604e1f2,
0x0d1202f9,
0x1006100c,
0x0716fbfc,
0xf02d1b32,
0xf7eff7f9,
0x13f9f80d,
0x07f200ed,
0xf3b62f16,
0xfe00f00a,
0x0581f407,
0x05ba0af0,
0xff0efac9,
0x14120610,
0xfc25f0f3,
0x1425f403,
0xfe26ea37,
0xfcf40504,
0x100d1007,
0xf2fc03ef,
0x00d72112,
0x0ff61410,
0x0ee608ee,
0xf8e9fad2,
0x02c30fd9,
0x11fcf7f0,
0xfcd4f404,
0x0fe101e8,
0xf3ee10d6,
0x12f9f007,
0xed080af3,
0xfff5fece,
0xf30807e6,
0x05f904f6,
0xf0dc0204,
0xfcbb0bcf,
0x09de14cf,
0xfa0902f8,
0x02db0313,
0x0bc8faf9,
0xeff5facb,
0xf21206f5,
0xfdfaf9f8,
0x0cef09de,
0xfad31eec,
0x0ffafc13,
0xf6e50b0d,
0x0bc5f1f9,
0x05d40606,
0x081405fb,
0xfeeefd07,
0x0ae8ff27,
0xfa43d418,
0xf605fef2,
0x0c19f3f5,
0x1416ff3a,
0x052bf017,
0x05f7f3fb,
0xf3140103,
0xf71b1022,
0x1013d70b,
0x110c03f7,
0x07ed0005,
0x14f00fec,
0x01de11d4,
0xf8f6fdf7,
0xf6dc0cfb,
0x0dfb0cf4,
0xfdf4050e,
0xf3fdfb0b,
0xf2ff02fa,
0xff0efa22,
0xf801f65c,
0x080a1008,
0xf30a0ef8,
0x01110825,
0x110a1f45,
0xf912fa0a,
0x101efbf3,
0x13211642,
0x0d121730,
0x10f60303,
0x0d13f106,
0x0e08f40f,
0xf621ec25,
0x0f03fdff,
0x09050af3,
0x09540cf5,
0x0c35e90b,
0x0805f7f2,
0x08030d14,
0xf1e5060e,
0x0bce2726,
0x00f10e08,
0x0db7f3ff,
0xfcc6f6eb,
0xffca23ee,
0x140209f6,
0x0abdfe0e,
0x0dc102b9,
0xf7c649d7,
0x140df90c,
0xf52206fa,
0x03240e03,
0x0d06d810,
0xfd14f60f,
0xf2ea11f1,
0x0fea0aaf,
0x10814cf7,
0xf3f403fe,
0x0da80415,
0x0caaf1d0,
0xf5c04efb,
0xfbf7f5fb,
0x0bc41302,
0xf9b812fc,
0xf6ee23fd,
0x1109f90b,
0x0dd00411,
0x06ce03e3,
0x090906b5,
0xf7fdfbfa,
0x063807f6,
0x0d2f1020,
0x1502ec0e,
0x101001fe,
0x0606f209,
0xfacd0bea,
0xfda032a7,
0x13021612,
0xf2abfeff,
0x079304a4,
0x10d207b3,
0x01f214f0,
0xf8d10104,
0xf5db0a02,
0xfc26ddeb,
0xf9f3f3fd,
0x12231512,
0x112dfb1f,
0xfe18c40c,
0xfe0a03f7,
0x11f2f1f6,
0x04fcff0d,
0x020a17f8,
0x0ef50512,
0x0d0102fa,
0x08090b06,
0x13da16eb,
0x0cf800f4,
0xf9fbfb06,
0x00f60ffc,
0xfba51de1,
0x14010c15,
0x07e7effc,
0x01f60be1,
0xfbb72415,
0x0afcfff6,
0x161b02fa,
0x14e6f41e,
0xf40b203a,
0xf407f000,
0x05dcfb03,
0xf4d9f5e1,
0xfcbe18ed,
0x10050d03,
0xfcdef6f5,
0x02cb06dc,
0xfaba10b4,
0xfc0800fd,
0xefb10106,
0x0de311e9,
0x05d7f5b5,
0xff0c1414,
0xfeab03f9,
0x12a90bb5,
0x0f8119c1,
0x130d110c,
0xfd95fcfc,
0x0b91ffed,
0xf0e53223,
0x0605fefb,
0xfee8f808,
0x00f113f3,
0x02120deb,
0x04f5f80d,
0x05e1f7fb,
0x160a0f00,
0x031eee0d,
0x140df112,
0x0d140df5,
0x1539f1d3,
0x00ba271f,
0xfd06130c,
0x0ec20efd,
0xf5b910f5,
0xfdd63af7,
0xf5021509,
0xedc4010f,
0x0beafe0b,
0xfa3bf1d1,
0xfefa0e0a,
0x121f1509,
0xf7f60719,
0xfb32f713,
0x11060315,
0x051216f4,
0x150f070f,
0x08e30705,
0x0f140ff9,
0x0be3fefd,
0x13c903ec,
0xf1f7fab5,
0xf614fe01,
0xf9f20712,
0xf2f4fc1f,
0x0e4de5f4,
0x08f2140c,
0x13430cf3,
0xf431ff0b,
0xf11ad71c,
0x0df609f5,
0x13f7faff,
0xf82d16fb,
0x122d180d,
0xf4f40c02,
0xf7270bf8,
0xfa270f08,
0x092e1248,
0x020e11f4,
0xf50903ef,
0xf727fa2f,
0x11f6fb4c,
0x0af8120a,
0x060cf6fa,
0x011d0c2c,
0x140df84a,
0x0ff7f115,
0xfd190f07,
0x01f91607,
0xf2f7192d,
0xf1ecf6ec,
0x0a05fcfa,
0xf413001c,
0x0910f8fe,
0xf009f306,
0xf62e0e0a,
0xfd0d032d,
0xf01ee535,
0xfafcffe9,
0x0a2e0a09,
0xee0b082e,
0x0710e71e,
0xf3ebee0f,
0x06f8e910,
0xf1e7fc18,
0xf7fafefb,
0x0cf2ec0c,
0xe9edf60d,
0x11ea10f8,
0x03ee14dc,
0xf4fefdea,
0xfd23f507,
0x0b17eb0b,
0xf914f944,
0x060afaee,
0x0d1af9f7,
0xf52af114,
0xfffe0a56,
0x0fef0bfd,
0xf3eafaf7,
0xf8e7ef21,
0x10fc1743,
0xebeafe0e,
0x08ef0106,
0x0b0c0b1e,
0xea2ff118,
0x05f602ed,
0xef34eefe,
0xfb310dd4,
0x0e05f3c7,
0x04fc1105,
0xf2ef0b03,
0xf5f3eec7,
0x09c73c17,
0x00e8f7eb,
0xf4d8eafa,
0x0994edab,
0xfe8826e7,
0x07edfa03,
0xec81f206,
0xf0a2f7c0,
0x0231e9ad,
0xebf0eff3,
0x0113f8fb,
0xf612f9cd,
0x0c0acde7,
0xf1f500f0,
0xfb380e06,
0xedf504fb,
0xfc02e11c,
0xe9f2faee,
0x03e8f8fd,
0x03f7fc02,
0xedc1f9d1,
0x0310ffea,
0xf50bf10c,
0x11e0ed18,
0xee57d808,
0x08000ff1,
0x015af409,
0xff6ffa34,
0xed35b113,
0x09f30ef0,
0xff09f9f3,
0x0cda0d13,
0xeeede9fb,
0x02eff0ed,
0x090400e8,
0xf4ecf82f,
0xfd20df44,
0xfaed0cf0,
0x090ef102,
0xeff60f10,
0xf8f8dbe3,
0xf8030800,
0x07e1f5fb,
0x090dfe06,
0x06f1fe2b,
0xf8f5fcfb,
0x0a0306e8,
0xf80f0204,
0xebdc1323,
0x09070c0a,
0xf2ff070c,
0x0918e924,
0xee1f07ef,
0x05eff7e9,
0x0d1e09f5,
0xf621000c,
0x071fe431,
0x17fbffff,
0xfc180615,
0x1106020a,
0xf9f70501,
0x0a1709ff,
0xf9000ff5,
0x06fd0816,
0xf6e610f6,
0x070a140c,
0x0bd21400,
0xfcfaf9e6,
0x008150e9,
0xfefa1407,
0x09c50607,
0x0ac4fed4,
0xf7e0471a,
0x02fdf612,
0x0907110e,
0x100eff06,
0x1221f725,
0x17fefd13,
0x12e41403,
0xfdf603ee,
0xfde52f15,
0x05f40618,
0x0ad60e12,
0xf4d606f8,
0xf5d717d2,
0x0efff5fb,
0x0ec1fc15,
0xfbb9fdc9,
0x05c433b4,
0x0a07f80b,
0x12a9140d,
0x11b611b9,
0xf9a31ad2,
0x03080008,
0x0dac140b,
0xf4a715e3,
0xffd33501,
0xfdfb1400,
0x13f6f4f5,
0xf208f403,
0xf6ebfde6,
0x0c10fb0a,
0xfef60a0c,
0x15d4fde0,
0xffd21d01,
0xfe12040d,
0x05e3fd0a,
0x13f714d9,
0x14e22af1,
0xfc120e08,
0x0ede0808,
0x03c711d1,
0x10c431d4,
0x010dfe0f,
0x0bc71605,
0x0bc3ffff,
0x000cf7ea,
0x04f80808,
0xf51e0cfa,
0xf422f818,
0x04fcfe0a,
0xf9f5fe07,
0xf7f70403,
0x12d1f702,
0xf7d5fef8,
0x14151212,
0x0911fff4,
0x05160232,
0xfe45e5f8,
0x14011617,
0x05f00008,
0x01f8092a,
0x101bfe18,
0x12f5f5fa,
0x02040a0d,
0xf8290112,
0x0a29f51b,
0x0efe09f5,
0x06fe0d0c,
0xfc0ff807,
0xf6ef1905,
0xf912f612,
0x0ce2f817,
0xfff7fde3,
0x10f81819,
0x091216fa,
0xf8f0120a,
0xfb04000e,
0x01e73a69,
0x0d0ff90e,
0x0be608f5,
0x12edf833,
0x10fc2438,
0x1217fafc,
0x011dfb03,
0x0b20ff1d,
0x080bf51d,
0xfceb07f3,
0x0b010800,
0x02fbed08,
0x0ff6f805,
0xfef60cf5,
0xf2fd0f09,
0xfc00f2eb,
0xf8e0f5ef,
0x030af106,
0x0cf90df2,
0xf3f30d04,
0x010dca17,
0xed0204fc,
0xf50d0b0a,
0xf7f4f30c,
0xefedff18,
0x01f902ef,
0x02d2f8fa,
0xeccd11e7,
0x00c81f03,
0xebfb01fd,
0xf2fd11f4,
0xef1c060e,
0xf617d40e,
0x0312040f,
0x09350902,
0x0931f923,
0xf14ee121,
0xf7f2edf0,
0x0d3e06fe,
0xf44bf92c,
0xefe9085a,
0xf10c08f0,
0x12251011,
0xfee7fd34,
0x0d300c4f,
0x120df0f2,
0xff0df3f6,
0x031e0015,
0x0d0401d5,
0xf20ef0f1,
0xed311209,
0x0418f237,
0xfb39e023,
0xfd050ffa,
0x0346f20e,
0x0a42f3f2,
0x07beeb06,
0xf2edf50e,
0xf1bc020f,
0xf9a7fca9,
0xf58124f2,
0x07eefd0f,
0x0ef10c0d,
0xf1f1f514,
0x036cd4fb,
0x0a06f011,
0xee581004,
0x0149f206,
0x0411f40a,
0x0af8fceb,
0x09f504ed,
0xfbfc0e1f,
0x061a0c25,
0xeb0cf2eb,
0x101b0ffe,
0x0f360702,
0xf4edfd01,
0x0df0ecf0,
0xf3bdf302,
0x0fdd06f9,
0xf8040fe2,
0x06effaff,
0xfe0becea,
0x042509fe,
0xfe03132d,
0xfdecfa0f,
0xfd0e04fd,
0xfbf3f0f2,
0xfaf6fe1b,
0x10fdff0f,
0xfdd70806,
0x0fdc0eef,
0x06e603e6,
0x01fdfdf1,
0x08eaf6f6,
0xffd809f5,
0x01ddfcf2,
0x03f3f8f4,
0x07ed07fc,
0xf9d40fd5,
0x02c71ebd,
0xeefcf811,
0x00b7fd0e,
0x06beeeb0,
0x10c5faa8,
0xfa0211f5,
0xfbe2f0f4,
0xeee0fbf0,
0xf510e4d9,
0x16020500,
0xfc1715fb,
0xfe1b1301,
0x0218e60c,
0x0b130bfb,
0x07fc07f4,
0xf809f50a,
0xfbf20519,
0x0c07fa0b,
0xf8f1fcf5,
0xfed80cf2,
0x02c81d01,
0x11010b07,
0x06ba0efc,
0x11d508f4,
0x0df60ce1,
0x13f913f4,
0x13eeff04,
0x040ef9de,
0x0e0d0df3,
0x09080c10,
0xf72cf916,
0x1521ff0c,
0x020d1c1d,
0x12f900fa,
0xfb071014,
0x001f0708,
0xf5fd0f10,
0x0dfbfff3,
0x0e140202,
0x06031440,
0x020e0632,
0x11f6f409,
0x0926140d,
0x0e2cf92c,
0x152ff4f9,
0xf4f40f0e,
0x0108ff04,
0x08fd0bc8,
0x04c828d0,
0x160c0806,
0x14110215,
0x141a091a,
0x0507fcfe,
0x04fdfafa,
0x06f90615,
0xf5e9f5c7,
0xf58722e1,
0x1304fdff,
0xff811406,
0x019910e7,
0x0fd41dea,
0xf7fa0204,
0x021614f8,
0x101d0013,
0xf621f302,
0x0b121200,
0x0a21f609,
0x0417fa11,
0x0912f5f1,
0xfff4100b,
0x050711f7,
0x0d18f9f9,
0x05f13323,
0x1203060a,
0xf6e40ff6,
0x00da0b00,
0x0edf2c09,
0xfa0f0eff,
0xf3e60e00,
0x0813f426,
0x053adaf9,
0x1006f314,
0x070f0cf6,
0x10f31509,
0x00f7f24a,
0x0a13f80a,
0x00030d07,
0x0edcfc0b,
0x09fa1847,
0x00140308,
0x13d807fd,
0x11d0f5e2,
0xf9bb24bb,
0x12fbfcf6,
0xffc8fbf8,
0x08cc0cca,
0x05d215f1,
0x11faf906,
0x08eb01fe,
0x0af5fde0,
0x06d31928,
0x09110c10,
0x08d0f905,
0xf3c9f6e5,
0x04ec1fd1,
0x090eff0e,
0x10eb0e0b,
0x14df0a04,
0x0c0313ed,
0xeaf0faf7,
0xf601edfc,
0xebfafefd,
0xf015e1f8,
0xeff2f505,
0xfef7fa06,
0x0909f5fa,
0xf4fbd8fb,
0xf2ebf301,
0x09f10602,
0xf8ed02e5,
0xedba120a,
0x0af0f9f6,
0x0111f3ff,
0x04d30bf3,
0xf110e62f,
0xfffff4f7,
0xf224efed,
0xfe0d0407,
0xfc1acc2d,
0xeefd09f8,
0xfd0ff3f1,
0xfb1b0714,
0xff25d426,
0xf806fd06,
0xed32eb06,
0x090f051b,
0x0a1bec11,
0x040404f5,
0x0a03f7f9,
0xfa1deee6,
0xf40af001,
0xf0fd08fb,
0xf7fcf3f1,
0xffd7fb00,
0xecfafe3d,
0xef07f6ff,
0xf82febec,
0xf109fd59,
0x0351b377,
0x0108fefb,
0x07fef3fe,
0xfb02fd12,
0x00f4050d,
0x04f909fe,
0x07fcf007,
0xfe21ec1b,
0xfffc081a,
0xedf905f9,
0xfe1d03fa,
0xfef401e2,
0x03813b1e,
0xf8fcf6ec,
0xf8b4f1fb,
0xf2d0ec10,
0x050304ee,
0xfbfff1ee,
0xedfef8f7,
0x040df10b,
0x0408e5f3,
0xf60707f7,
0xf5090bfb,
0x050a02f8,
0xee17eafd,
0xf507f001,
0x020304fe,
0x00f5ebd4,
0xf2da16ff,
0xff07f8ff,
0xed9ff40a,
0x069b01d1,
0xfbc823b3,
0xfbf90808,
0xf304ebf5,
0xf62bf513,
0xfe5dd0e6,
0x0b0508fe,
0xfb42edfe,
0xf1490aec,
0x0adff4f9,
0xfff903ec,
0xed1cf6ea,
0xed0af709,
0x0922111c,
0xf0f0f4ff,
0x0039f4f5,
0x080a0936,
0xf130d00b,
0xf8fe0703,
0x0822f2fc,
0x033aff2e,
0x035faddf,
0xfbffec06,
0x003805ea,
0xf21204f0,
0x0be9e211,
0xfcf20801,
0xf2f500f2,
0xf3d5ffee,
0x05d5f9e4,
0x0bf4f8fe,
0x020702fa,
0xf8fa05ec,
0x0efcee0a,
0x01ecfe0a,
0x03ffecfd,
0x0af40d03,
0x053afa1f,
0xf80b0b04,
0xf138ef03,
0x042f0c1c,
0xf97fc914,
0x0d0208fd,
0xfe3d0ef5,
0xfb40f513,
0xff2dccf9,
0xff01ee06,
0x04f9efee,
0xf0f808fc,
0xf8fcdcee,
0xfbfc0701,
0xf90bf3f7,
0xf4ed0ffc,
0x01f1faf5,
0x050bf0fd,
0xf3f2010b,
0x07eb00ef,
0x09100cff,
0xfbedfdfb,
0xfb27f803,
0x0529ff16,
0xf323e101,
0xeeeffeef,
0x021803f2,
0xf521f306,
0xf21a0608,
0x03ff06f3,
0x0b15fafc,
0x051fef05,
0x00f7f20b,
0x02ee060c,
0xfd02faee,
0x0c0a0c00,
0xed01130c,
0xf4f3eef8,
0xf80502fb,
0xff25fe34,
0xfc77e81d,
0x0efef106,
0xf474fbf8,
0x034ffc62,
0xf964cc34,
0x0ff10507,
0xf133f80a,
0x0c24052c,
0x03fdf521,
0x0608f1ff,
0xf1fdf9ed,
0xfaf605cc,
0x05ba39e7,
0x02f2f80e,
0xf3f50efb,
0xed01ed02,
0xf8e9f0ec,
0xed0007ec,
0xece60e05,
0x0301fdbe,
0x02d43a1e,
0xf8eff20a,
0x00d6f8fb,
0x03d806f2,
0xfcd5233d,
0xfdf909fd,
0x0404f8f6,
0xf602fd1b,
0xfbee0806,
0xedec0f00,
0xf7edf10b,
0x08fcfdf2,
0xf8e117ca,
0xeded09ed,
0x0927f0f4,
0xf7080a06,
0x04f7ebfc,
0x0bec080d,
0xfef7faef,
0x0fccfaeb,
0x01de0aab,
0xf0f7f9fe,
0xf8bfed05,
0xf6dafcba,
0xfd10ffbb,
0xfaf909f4,
0x000806ed,
0x0902f705,
0x001fd701,
0xfaef0400,
0xf0090bf4,
0x0d0f0101,
0xf4f2eaf3,
0xf610f6ec,
0xeef6fd08,
0x0c19eef1,
0x0e13f119,
0x01fa010e,
0xf7020eef,
0xfa00050a,
0x0818120d,
0xeefbf30d,
0xf61bfef1,
0xf520fc18,
0xff40e704,
0xeaeff504,
0xf9090ff6,
0x064e010e,
0x093ce2ed,
0xfa0cff01,
0xe9df0dea,
0x0408ebf0,
0xfec133e7,
0x04f00611,
0xfe08fbfc,
0xef0506d6,
0x0ef2edd9,
0xf7090503,
0xf8de05f1,
0x12030ab2,
0x0d030db4,
0x01eeee10,
0x060ef60f,
0x030af1cd,
0x08e30aef,
0xf80c0301,
0x0f220a0a,
0xf227f944,
0xfd47d81e,
0x0e000afa,
0x05040511,
0x0c1f05c0,
0x03d00381,
0x09f4eaef,
0xfd20f505,
0xfe12f23e,
0x0861c3d1,
0x0cf3f3ec,
0xf359f0f7,
0xfd650d10,
0x0e10d5ab,
0x0105eb0c,
0x0bcb0401,
0x00c4fb98,
0xf2b327b8,
0xeb07f3f2,
0xfedbf8ea,
0xeded031f,
0x0b7fbdfc,
0x10f807fa,
0xf775f7f9,
0x066a0405,
0xf003e6f8,
0xec050b0c,
0xf4290dfd,
0x0c1dff3d,
0xfe54e02a,
0x0ff0f8ff,
0x0c6bfa00,
0xf36e063e,
0xf512e41c,
0x01ed040c,
0xeefcf9f4,
0x0fea0210,
0xf3fcedd0,
0x020c0508,
0x0b3901ee,
0x033d0411,
0x0040b922,
0x05f8f8fa,
0x0b2807eb,
0xf602fced,
0x10edec1e,
0x12fd07f3,
0x0ae0ed0d,
0xf8df03e5,
0x0606fdf0,
0xef090412,
0xec15f5fc,
0x092d0eed,
0xfee6f30a,
0xfcf8f6ef,
0xfbe5f0e9,
0x0105f3f4,
0x07e23438,
0x0101f802,
0xf20a040f,
0x0ffef4f7,
0xf6f91233,
0xfe010ef5,
0x09f6fbee,
0x0ae80000,
0xebf6ee05,
0x00e404e1,
0x090406f8,
0x05e3f600,
0x0cfafc04,
0x0ef3f1e4,
0x0a03fee5,
0x0dfc0e13,
0xe407ccdb,
0x06020aeb,
0xf3131004,
0x080900fc,
0x0846d10f,
0xff101107,
0xf90de803,
0xefe4f310,
0xfbeff01a,
0xe1fde60d,
0x03d7fdf0,
0xfcb4dfe9,
0x08def7fb,
0xeffbfa02,
0xfb0d09f9,
0xe4011337,
0x002c9d06,
0x05f0fbef,
0x1250fce8,
0x0349ec43,
0xf27aa128,
0xf7e803f6,
0xef48df0c,
0x115403dd,
0xfdbbfb4f,
0x0ff90be4,
0xe5fff3ff,
0xedede009,
0xfd3e0b47,
0x0edfe9fd,
0x022612f5,
0xf44ae223,
0xe140a029,
0x00edfce7,
0x051009e6,
0xef38e51f,
0x114ec71c,
0xf4ea0307,
0x095e0504,
0x0874012a,
0x0e1de03f,
0xddecec0c,
0x0715f1f7,
0xfbb30edd,
0xe0a02b1e,
0x0ef1f1fe,
0xf3dfecde,
0xe9fc0623,
0x0776bd16,
0xf4e7e6e3,
0x092108ea,
0xe13becdb,
0xf2dfe701,
0x0ddf0908,
0xfc09e6eb,
0xf6020623,
0xe342d011,
0xdf0f01e3,
0x0f340a09,
0xe637e3e2,
0xf4eef0e1,
0x03040ef1,
0xfabee200,
0x07cb10c6,
0xfbe125f1,
0xec000aea,
0x0e32f3e8,
0x0b2ff503,
0x111207fc,
0xe3f1f3f0,
0xe804e902,
0x04f9050a,
0x08faead6,
0xdee6f6e0,
0x0009fde6,
0xe8dbfad9,
0xeafe221d,
0xec040a03,
0xfd1cee02,
0xe5ffe0f2,
0xefece8ee,
0x050a0506,
0x0bf5e40d,
0xf6cdfbe8,
0x00f7df81,
0x0700e610,
0xfb17e101,
0x08dee4c9,
0xebffbccc,
0xfbf1effb,
0xe617ebe8,
0x10f50402,
0xfeedd0d7,
0xf0f9eef1,
0x00ec0f13,
0xfaf2010b,
0xf8f409ff,
0xf612fced,
0x0efbf5f8,
0xfc09ec06,
0x11da0ae1,
0x08f4fdf0,
0x0cbced13,
0xf8e4f0ba,
0xf98649b7,
0x08fcf9fa,
0x0dc1050a,
0xf8cf14c2,
0x09d441fc,
0xf3edfc00,
0x0606fff2,
0xf512f010,
0x1018fe35,
0xfa04fb15,
0xf6fa1101,
0x07fb0017,
0xf208e80e,
0xeff01209,
0x020b00ff,
0x04210f15,
0xfa21e1d5,
0xf109fc06,
0xf8e50dfa,
0xf9e013c8,
0x0a992e81,
0x0df5efec,
0x10b801f9,
0x03baf9bb,
0xedda13cb,
0x04110214,
0xfbc7f010,
0xfeb80fda,
0x10fce714,
0x0700f50f,
0x121d0113,
0x1007fd22,
0xf4f3ea05,
0x0af9f114,
0xf71ffa12,
0xedf8fb14,
0xeddd0b0b,
0x0b0912f4,
0x15ef0cf1,
0xffe915d7,
0xf3ca11f0,
0xf20a0cf6,
0x00e302fb,
0x06daeefc,
0x01fc10f0,
0x15f011ed,
0xfdedf901,
0xf50af33b,
0x0146c616,
0x0c09fb02,
0xfeee0aec,
0x06c0fcfa,
0x1318f7f8,
0xf8f815ee,
0x0342faf5,
0x1727146f,
0xf57ba5dc,
0xf002f901,
0x1167f2ed,
0xf13f1220,
0x1437c3d6,
0xf215ee0d,
0xfee8040b,
0xff11f2ee,
0x0f07e7df,
0xf5f7f500,
0xfe110007,
0xfc1ff90b,
0x0c09ff13,
0xf0f0f4fe,
0x09d1f003,
0x0de408f6,
0xfb070b06,
0x081503f7,
0xf72315ee,
0xf972fe5e,
0x0d5ae171,
0xed07ea04,
0xfe580af0,
0xfd4a0a64,
0x111cec65,
0xed1006ff,
0x100604f2,
0x0e14012d,
0x1300181a,
0xf4fb0011,
0xfeff0b0b,
0x0408fd09,
0x00ec1913,
0x0704eaef,
0xecf5f6ed,
0xf3e8f704,
0x04eae8db,
0xee01e8e9,
0x0cfb08fa,
0xf811fee2,
0xea09f1e0,
0xf1e60cfc,
0xeee2f8f8,
0xebece9e7,
0xf8d419f2,
0xfae7ece8,
0xf6fff2fb,
0x0cd7fc11,
0x0333e829,
0xf5f5e804,
0xf32ee8fe,
0xed22030f,
0xed1dda42,
0x09e7f8f2,
0xffe8f007,
0x02ddebf5,
0x0100d1ea,
0x01e9f2e9,
0x0c22edf3,
0xf310f20e,
0x0728e9f2,
0x010209f4,
0xef06f704,
0xf10ae7b5,
0xf8ae16b5,
0xe707f602,
0xf9c9f407,
0x04a4e6fe,
0xf506082c,
0xedee0409,
0x0e310c03,
0xf41c043c,
0xf54cd847,
0x0cefeae9,
0xf205eaf5,
0xfde50a1c,
0xff1be1e2,
0xf60100f5,
0x0217fae7,
0xea5a0817,
0xe951bff1,
0x08fcfa0a,
0xfc3aea00,
0xf40e04bf,
0x098115f4,
0xe8f5ef01,
0x0da60afa,
0x06af04fc,
0xea1b04c9,
0x0beb06eb,
0xe518f7f6,
0xf91cf714,
0xf935ca0c,
0xf3fff1fc,
0xfe20f701,
0x081d0f44,
0xe74dc31c,
0xff01ece4,
0xea5bf8e5,
0xe647fa1f,
0xec18ec03,
0xe7eae606,
0xead00000,
0xf3ddf9e3,
0xfde712b2,
0xfa0c08ea,
0x0b09f3eb,
0x0e37f020,
0x0c5bd7f4,
0x08fafeed,
0x02520b00,
0xfb53ea05,
0x07fbf4f3,
0x05f5e6fb,
0x03f4f5ee,
0x0412f7fc,
0x0a320336,
0xf3eeeaf5,
0x0c54f6e8,
0x0045e82e,
0xf83dda27,
0xfdefee0a,
0xe93c0ce7,
0xe537002e,
0x042ed8e9,
0xe5090600,
0x0c370af3,
0x0326e6f0,
0xf4ecf130,
0xeb0bec00,
0xfb0cfcf0,
0xfbe501ee,
0xf4e10312,
0xfe030bee,
0xf2e1ebf9,
0x03f210eb,
0xf4d61bff,
0x11eb01f8,
0xfbe20c10,
0xf9ea0be9,
0xefe711d5,
0xf7ff030a,
0xf8e80609,
0xfde8fbc2,
0xf10a0dbd,
0xfdec0701,
0xeffff013,
0x1116fee7,
0x042f0ef5,
0x10f9ef02,
0xec18fb0e,
0x00fef0f3,
0xff080b26,
0x080dfc0d,
0xfcf1f2f9,
0x00e7fdff,
0x020cc3c4,
0xfef7f008,
0x0611fb11,
0xff2af1eb,
0xff57cfbb,
0xef04070f,
0xfb1d06fc,
0x0c04f6b9,
0xeb930bbd,
0x0a07ff0c,
0xffcc0d0d,
0xf5d8fcdb,
0xf20b13e5,
0xfaf30cf3,
0xff120c04,
0x120dfafd,
0x0715eadb,
0xfdff0611,
0x0a2bf90f,
0xfa170b34,
0xf8409d0c,
0x0c111001,
0xf2680712,
0xff7f0e4b,
0x003acffa,
0xecfff10b,
0xf344faf4,
0x12f90eee,
0xfdc60e01,
0x11f1f20f,
0xf4fffdfb,
0xfa1a051d,
0x034ed206,
0x000d10fc,
0x122f130a,
0xec271319,
0x030a09fb,
0x08fd0908,
0xf5ff0aed,
0xf514f028,
0x0b2af61e,
0x12f20d10,
0x125eeb0e,
0xf85cf532,
0x0a2be5f5,
0x06f3f002,
0x0904f10e,
0xee14fef4,
0xf9ee0d15,
0x0404fa12,
0x0c150c08,
0x0a3901fa,
0x0b0cf90a,
0x0deff9f5,
0xf9eaf407,
0xf80ffcec,
0x03d238eb,
0x0cf4f3f0,
0x03d1eb03,
0x05dff0cb,
0x06e432ea,
0xedf0fffa,
0x0bf7fa00,
0xfcf900fa,
0x031bf72e,
0x0e02faef,
0x0d1a0908,
0xfb0c0de7,
0xf5fc0d0e,
0x05f10308,
0xfe0aeeeb,
0xf50506f0,
0xfaf504ef,
0xf6f90810,
0xfafe0ff1,
0xfff206fb,
0xf5edffc5,
0xfcf8f7f6,
0xeaf50d09,
0x0d010bf1,
0xe51cecf7,
0x060b0c09,
0x02f30907,
0x00080800,
0xfd1808ef,
0x0eed03ee,
0xe9f2f704,
0x08c6fed6,
0xe6ea1708,
0x0ee40b02,
0xffd0fbfd,
0xf2ee0802,
0xf61af0f8,
0xfd07e9e9,
0x0a0907f2,
0x073bfafe,
0xf746af00,
0x0508fa01,
0xf70ef508,
0x07fff5f3,
0xfaf5200e,
0x0f0afafb,
0xfce80df7,
0xf910f2f1,
0xfc2d04e4,
0xf209f8ff,
0xf91007fa,
0xe6d0f0bf,
0x00dc04b2,
0xfaf2f4f4,
0xebf60bfa,
0xfb30f21d,
0x092cc7c0,
0xfd0cefe8,
0xfe26e50a,
0xf30b05e0,
0xf9cf0fff,
0xfffef4f8,
0xf70cecf4,
0x0d0d0d0b,
0xfe2af4e7,
0xf60c08ec,
0xfb48f1ef,
0x10670444,
0xfb5cdb2b,
0x01ee0ffb,
0x0c5eeaf7,
0xe91bf96b,
0xe632d24a,
0xffeef4f2,
0xea38f100,
0x072b0e57,
0x035daefc,
0xebfb0c00,
0xf704ee0e,
0xe9010cdf,
0xf0c21dd2,
0x09ef0e01,
0xfe23f00d,
0x013a05f0,
0xff17d438,
0xf603f9fb,
0xf7fcf5f2,
0x07e2ecbd,
0x04b62b41,
0xfcf1e608,
0xfedffce5,
0xffd6e820,
0x0a31f648,
0xf60de5e8,
0xe97ff0f3,
0xf260ff23,
0x0f20da53,
0x0b040a08,
0xfe1bee04,
0xf32bf2fc,
0xf5bf28f5,
0x0707efff,
0x0616e3e4,
0xeaeefc04,
0xf99d22dc,
0x08f0e609,
0xe2ad09f1,
0x0c820abd,
0xee9f2a9f,
0xedede6e6,
0xf9b101ea,
0x06ebf6ce,
0xe715e707,
0x03f707e6,
0xff0be7e7,
0xecf7ebef,
0x0cc9e9fb,
0xf0f50eed,
0xede80005,
0x00bbe9e5,
0x0ade1dd1,
0x0b141402,
0xf60e1007,
0x00f9f805,
0x0bfb1808,
0x0e10fc08,
0x110b0cf2,
0x0b06fa10,
0x0be70a0a,
0x000a0efd,
0xf5d3fcf3,
0x01d308f5,
0x02a6250c,
0x0d08fd09,
0x0edb12ff,
0xf2d705ed,
0xfcf10712,
0x0df80aff,
0x0214fb03,
0xf2edff00,
0x0304091c,
0x07070ff2,
0x06f00000,
0x04df04f5,
0xfdb026f2,
0x0307140a,
0xf4c3fd14,
0xf2d6f5e4,
0x13d111cc,
0xf8080414,
0xfddb0a02,
0xf5cef3e7,
0x02cc17ed,
0xfcf60d00,
0xf5e10d12,
0x02d0f3fe,
0x08de0d07,
0x01041314,
0xf5cef8f5,
0xfbd0f40b,
0xf2031f14,
0x0b0006f9,
0x04f901f6,
0xff00f40b,
0x0135f6d9,
0xf80bfcf9,
0x03190e13,
0x0d500af9,
0xff13f9ea,
0x04060503,
0x02e00313,
0x05e307bf,
0x10813718,
0x0d10f412,
0xfbb4060e,
0x13b809ef,
0x081405eb,
0xf6f7070a,
0x0ffafef4,
0xf60c0311,
0x071de9cb,
0x0511fe04,
0x092d10fd,
0x033bf41d,
0x0950e141,
0x06fbf6ff,
0x0d1503f5,
0x0ff30cdf,
0x0d9a2cfe,
0xfb1204fe,
0x0a950f07,
0x11abf407,
0xf915fbae,
0x0cfb06fc,
0xfa110a06,
0xfe31f834,
0xff5ec528,
0xfc07040f,
0x073712f5,
0x0d480a2c,
0xf41ce427,
0x12f4fc10,
0x0b1df514,
0x0c1f0f0b,
0xfbfe0a24,
0x0af3f4fc,
0x010d0cfa,
0x0dec0ede,
0x0ac52ae9,
0xf8050cf5,
0xfee801f9,
0x08e7fbda,
0x08e52438,
0x14051314,
0xfed90405,
0xffcc0c10,
0x0df52e48,
0x0b120e02,
0xf4fdf9fa,
0xfce31300,
0xf7f6050a,
0x040dfc0a,
0x010c0215,
0x080e10f8,
0x16e31d03,
0xfc081b04,
0xfbddfbfc,
0x08e819fb,
0x08b01ceb,
0x07f905fd,
0x17cd1115,
0x07dc0de2,
0x14d90ad2,
0x19141005,
0x08ec19fc,
0xfb04f9f9,
0x03fbf706,
0x04140711,
0xfb17fe19,
0x10121721,
0x1404062c,
0x0cfe1001,
0xfffd060b,
0xf8f6f9f1,
0x0fca27cb,
0x0af70310,
0x09c403f7,
0xfad40503,
0x120912cf,
0x1606fcf5,
0x151c14fc,
0x0b310a29,
0xfc44d114,
0x0eff0efa,
0x05270617,
0x18f5fc26,
0xfef9091d,
0x19fd08ff,
0x0ff6160e,
0x08d3fbfb,
0x01f02708,
0x080d0b17,
0x0729fcfa,
0xfd0df834,
0xf63ae5f8,
0x07120104,
0x04100a00,
0xff5a061a,
0xffed1310,
0x0913080e,
0xf8061111,
0x0e0309e7,
0x09813b33,
0x04f7fb0c,
0x01d404f6,
0x0cd50c1c,
0x11f93c18,
0xfe1814fe,
0xfae60212,
0x17001809,
0x07f33ded,
0x0612fb0b,
0x070e0400,
0x0e011606,
0x00fa3433,
0x121910fa,
0x1bdbf606,
0x13eb01d4,
0x1ba03ef0,
0xfffc11fb,
0x189d0909,
0xf6a003c2,
0xfbe60db5,
0xff0c0f16,
0xf6f4fc09,
0xf50811d3,
0xfeff0e07,
0x11181716,
0x15e30701,
0xfedefecc,
0x0feb3de9,
0x0c090b07,
0x0fd61208,
0xf9e4f8e3,
0x14e639ee,
0x140c0e0b,
0x17e61a0a,
0x09e10fe8,
0x09f706de,
0x0f0f1c04,
0xfa03f517,
0xfb021be4,
0x15fdf907,
0x071b1904,
0x16d81002,
0x11d705e3,
0x07d912e7,
0x0c120b19,
0x01c80a0f,
0x13c617da,
0x0afd1dc1,
0x00f7f613,
0x0d08070f,
0xfbfdeb19,
0x00ff0006,
0x08f1eaef,
0xeb0606ee,
0x0fe8fe22,
0x11e6f336,
0xedfdf9fc,
0x021cf7f5,
0x11dafb52,
0x07f5e139,
0x13ec0403,
0xf116ef04,
0xfff9eb38,
0x09ebdc10,
0xf1f3fdeb,
0xf3f2ebf1,
0xedd702f3,
0xf2c7fdf4,
0x0ef0e9fc,
0x0efaf00a,
0x0502f9e2,
0x06d93c2a,
0xfd0508f8,
0xf5d107f3,
0xfccff801,
0x00954732,
0xedfeeaf4,
0xfee2f007,
0xfff1ec51,
0xf14deb7f,
0x01faec10,
0x0748f1fb,
0x00011446,
0xf70ae677,
0x06f5fa0a,
0xefff12f6,
0x0df2001c,
0xf70c0efc,
0x13f9efea,
0xf4ebf0ea,
0x01d7f5d6,
0x0fd730e7,
0xede9f40d,
0xf8a8eafc,
0xf2d9f3c4,
0xefba14d4,
0xfdecfcff,
0xf9af0500,
0xf5d0efa9,
0x089137f3,
0xf10213f3,
0x07b402fb,
0x01cc00ec,
0x030c0cfd,
0xebeb060b,
0x12fbfafd,
0xf000f515,
0x131eda02,
0xf813ec11,
0xf80cee00,
0xff1decfe,
0xfc29dc07,
0x01fcffec,
0x0d0f0103,
0xeffcf9e3,
0xf6b20dfe,
0x00f704f8,
0xeea9fb0d,
0xf1b2ecec,
0x12e80497,
0xf7fb0f0f,
0xfdddfd0c,
0x01f8ec27,
0xf836d0f2,
0xf6f4120d,
0xef2109fb,
0xf913f348,
0xff45af33,
0xf305f1f0,
0xee4e0a0c,
0xed440e2e,
0xfc40f413,
0x08eef807,
0x112e13f3,
0x081cecfe,
0x01e719db,
0x040d020c,
0xffecedf3,
0xebe1f6d9,
0x10da0704,
0xf803fefd,
0x02e1f6fc,
0x06e0f7e6,
0x0edf1929,
0xfd0bf70a,
0xfefbf4f4,
0xf6f4f916,
0xf1fae636,
0x0d0706f9,
0x1120f30f,
0x020cf812,
0x1428fc03,
0x07051101,
0xfd18f102,
0xf5f8f010,
0xf4312220,
0x09f8f1f3,
0xfafc0df7,
0x0be8f00c,
0x04e3081e,
0x12feff06,
0xfae0f20f,
0xfcf8fdf3,
0xf7f3f4dc,
0x03f91312,
0xf2f5f200,
0x081ef0ef,
0x0530cfc9,
0x15f2efef,
0x12170411,
0xfb230d0d,
0xfff7252c,
0x0ff3f50d,
0x09fffcf3,
0x0b070ef8,
0xfeeb3215,
0x1403f015,
0x11f20a13,
0xf5dc0c31,
0xfa54e726,
0xfc1111f0,
0x07390ff5,
0xf3530518,
0x0b09e3d7,
0xf5051415,
0xfa130712,
0x14f60fd3,
0xfcc025e8,
0xf20507f5,
0x02e113ef,
0xf704f3ed,
0xf5ef120c,
0x15100912,
0xfef2110c,
0x06dcf0f0,
0x0de11d14,
0xf808050a,
0xf4f6f008,
0xf8f5154e,
0x014cde39,
0x1115fe03,
0x0f5112f2,
0x023a112a,
0xf4f8f805,
0xf010fe01,
0x08e70c12,
0xffd60cf0,
0x02ed10e3,
0x1204f2f9,
0x0eec0e08,
0x022107c7,
0xf7ab1e18,
0xfdf4050b,
0xf58beffd,
0x0281f9a6,
0x0f9f4a21,
0xf304f5f7,
0xfab301f8,
0x12da031b,
0x141a043a,
0x0a0c10ff,
0xef28f115,
0x0f1bf128,
0x0108ec2e,
0xf2f50513,
0x0f000b11,
0x0ef2f7fb,
0x0c0e261b,
0x0f0cfb08,
0xf72d13f8,
0x140512e6,
0x14bf07ba,
0xfcf80f10,
0x0b9801fe,
0xf38b04a2,
0x08aa1388,
0xf007fc05,
0x00d5ff0f,
0x0ad7ffc6,
0xf71af30b,
0x0f1312fc,
0xfb00f315,
0x11f104f0,
0x01f6fd01,
0x13f1f3f0,
0xfaf207f9,
0x10eb0ae7,
0xf7020af7,
0x05080514,
0x070b1b07,
0xf10411fa,
0xfbe441f3,
0x02061dfa,
0x1cf70910,
0xf9f1f7f0,
0xf7e212c9,
0x04f213fd,
0xf3b612fb,
0x0ce713c2,
0x05b545d4,
0xfe0d11f1,
0x05de1c08,
0x0adcf2f1,
0xf8f922fc,
0x1e04f017,
0xfe380d16,
0xf6190210,
0x0050fa38,
0xfaf8fff9,
0x02d8f309,
0x18bc13de,
0x0ee323eb,
0x1eff170f,
0x0dcffd02,
0x11f5f40e,
0x03fce0c6,
0x12061a14,
0x14ccf8fc,
0xf3aef3c4,
0x1dab2681,
0x1c1bf519,
0x0bb8fbf2,
0x04d802a4,
0xf8a03690,
0x0f1df9f8,
0x1bcff9f9,
0xfcbc07db,
0x1be45017,
0xf110040e,
0xf4e810fb,
0x17041708,
0x0115fbf3,
0x101313f2,
0xfc05f919,
0x1a170a1c,
0x0627030b,
0x10070d0b,
0xfd1b0e0b,
0x02251204,
0x1011091e,
0x00f4fc04,
0x0bfc0d06,
0x0e041bea,
0x019e38dd,
0xf8f9feff,
0x1893030c,
0xfca908f4,
0xf9f43bdb,
0xfa1bf5f8,
0x0ce90e07,
0x11ea13ef,
0xf5e53019,
0x0df5f415,
0x1301f3f6,
0xf4ea0d25,
0xfe12fd01,
0x06041913,
0xfd3b130b,
0x032d1603,
0x1a34f617,
0x171a1916,
0x08fbfe12,
0x0be0fef7,
0xf0e113e8,
0x0000f5f2,
0xefcc1d02,
0x1df50df1,
0xf81224e8,
0x000a0f0a,
0x04001dff,
0x0b01fbfa,
0xff110f04,
0x16000c0f,
0xf9dcf813,
0xfafe1e02,
0x180b253f,
0x1a0df416,
0x00370b0e,
0x0e1b143f,
0x0221205f,
0x071e1905,
0x092ef604,
0x190c0150,
0xf12af323,
0xf21cf111,
0x1e2a170f,
0x1c3ef821,
0xfc30ef17,
0xfb100212,
0x03f91908,
0xf21dfff7,
0x10fcfa09,
0x17fe0d04,
0xfe090116,
0x09d6f906,
0x07d90605,
0x1cf2f51d,
0x03fc1a15,
0xfddc0af8,
0x1116e2fc,
0xff0303f9,
0x1af2f315,
0xf3fb16e5,
0x10dcedc2,
0x0bf8f405,
0xf5de0908,
0x1df401f1,
0x01f01ae7,
0x130f1c00,
0x0d21f8f6,
0x09220df4,
0xfd16060e,
0x13fd0516,
0x05020c19,
0xfd051706,
0xfbf1102d,
0x09010619,
0x152a1212,
0xf90d0278,
0x0e7feb3d,
0xf6fa01f3,
0x045510f1,
0x0a531901,
0x1bede7eb,
0x11fef605,
0xf5ed1a12,
0x1be516f5,
0x14d730e7,
0x1509090d,
0x0a1b01fd,
0x082108f2,
0xf4e53005,
0x12f6fd18,
0x03ee01ff,
0x10bd03e4,
0x06a9270e,
0xf614f8f2,
0xf6e2faf4,
0x1206fd46,
0xf17ce425,
0x1ef6121b,
0xff570ff4,
0x18590d1f,
0x10e2f82c,
0x17180c1c,
0x0ef0ef01,
0xfafb0efe,
0x06f30c1f,
0x1e01050f,
0x0de01106,
0xfcd5f2b4,
0x0cb353e8,
0xf9fffc00,
0x0dac0417,
0x05c103fb,
0x07040b02,
0x0a140dff,
0xf31bf21a,
0xf91e07fe,
0x0110fa5c,
0x1a14fd07,
0x04d61a02,
0xefdb05c5,
0x1db93412,
0x1c09190d,
0x06afef00,
0xf0bc04d8,
0xf6e246f5,
0x14f30c12,
0x0af1fb16,
0x0ee812f2,
0x16c80bc4,
0xfa03fa10,
0x05c3ff1a,
0x0db5f3ca,
0x05d503c8,
0x0409030e,
0x0b0c131b,
0x13e406d2,
0xf3effbf4,
0xfd0eff0a,
0x0eb91b12,
0x0ce508dd,
0x0be216ac,
0xf50416fa,
0x08d81518,
0x1dea09d1,
0xf6052db9,
0x0afd0114,
0x10fbf6fa,
0x131c0ef2,
0xfdfe07f5,
0x0606fdf3,
0x01ee05f3,
0xf9eb1715,
0x06f4071c,
0x0c03fc05,
0xf6050417,
0x0e010028,
0x16cf1111,
0x0b1308f9,
0x12fe1514,
0xfcd00c09,
0x07c4170d,
0xf50e0b11,
0x0611ff05,
0x0ccef408,
0xfa0efa1b,
0xf5040714,
0x13ef0f0e,
0xff03f2fd,
0x10bd20fd,
0xfb120a0a,
0x0fc5f417,
0x15ba09f7,
0xf3a822fb,
0x080c0ff3,
0x07d004f3,
0xf6fa0023,
0xfc180b09,
0xf7f40309,
0x0dfc13f5,
0xfbdf03f2,
0x16b02412,
0xf70410f3,
0x07b5faf7,
0xf7c70013,
0x02081c33,
0x08f3fefa,
0x16e8f6fb,
0xfbde02d9,
0x01fb26e7,
0x160e1210,
0x0ecefdfd,
0x05020ce3,
0x13f02116,
0x080ef912,
0x0804f604,
0x0e1706f2,
0x13c6394e,
0x08fdfafb,
0x09c9f6f9,
0x15c2fae2,
0x11b44f04,
0x09150206,
0x0cb81306,
0xffd5f609,
0x0e0cffd5,
0x160cff10,
0x0e1afb0b,
0x050d12ed,
0xfaef0320,
0x090ffd07,
0xf5d00c01,
0x09bd09c6,
0xfa8140fa,
0xf7fcf50a,
0x1387fff9,
0x0c9cf7e4,
0x10db1eb7,
0x05f7150e,
0x11d4080c,
0x0edff400,
0x0c22ebf0,
0xf4f5f513,
0xfa10f809,
0x161ef42c,
0x1036df04,
0xfd121516,
0x142bfc03,
0x0d370f29,
0xff1b0e1a,
0x090cf516,
0xf8fb0bf6,
0x14de0ee8,
0x0ac82fe7,
0xf5f507f5,
0xfabd0f0c,
0xffbaf9d8,
0x03f80af8,
0x13fe03f5,
0x12e4f404,
0x06dffe29,
0xfe18f127,
0x11000817,
0x151aff08,
0x071ef513,
0x140c012d,
0xf4fd1502,
0x07fe15fe,
0x19f910f5,
0xf5e320f9,
0xf50f0f11,
0x01fc131b,
0x15f71823,
0x0bd10c0b,
0xfdfbfa08,
0x09f6fb04,
0xf6f00f0b,
0x06e20402,
0x1c06faf3,
0x011b0602,
0x14e6fa0d,
0x1cc01d44,
0xf30ff7fb,
0x0e0ef206,
0x08fe0c26,
0x031a1b35,
0xf804101a,
0x0ff01111,
0x1401fef4,
0x12dd29f6,
0x0306f703,
0x08d815fa,
0x13e21906,
0xf8a1111a,
0x09f41a0d,
0x18bef201,
0x0cef0d00,
0x15041e1b,
0xf7030516,
0xf4ef05f6,
0xf3abf5d7,
0xf3a14441,
0x0bfef809,
0x1dd2f71b,
0x06d90f12,
0x0a101a46,
0x1afd0bfc,
0x08dd0218,
0xfafcf5ee,
0x1adc34f6,
0x17f305fa,
0xf9b0f91a,
0x0edb11dc,
0x16a628f8,
0xf712011b,
0x04bafb02,
0xf8d8f6a3,
0xf4913c05,
0x19131b0c,
0x078dff15,
0xfd9effb9,
0x17a563e7,
0xf80f1df9,
0x08c201f5,
0xf8c6f823,
0x173410fb,
0xfe12fcf5,
0x18011206,
0x00f01607,
0xf5e00efe,
0x0511111c,
0x19e4fd0a,
0x19b21dd3,
0x01b909bd,
0x0bf20103,
0xfecc0e11,
0x0bc513dc,
0x19d40e81,
0x16001907,
0xfbb40216,
0x06cbf6d8,
0xfb0df8c4,
0x070304f5,
0xfd0df819,
0x1afb1117,
0x0d40eb32,
0x06f418ff,
0x151b1d0a,
0x112b1814,
0x06610216,
0xf30d13fd,
0x11420616,
0x15561331,
0xfc33fe2a,
0xf519fa13,
0x1723051c,
0x151c0516,
0x020a0b0f,
0xf4f8100d,
0xffe707f4,
0x17f5fb3c,
0x081a192e,
0xf304fa09,
0x0e1a1112,
0x0426fb32,
0x1021f120,
0x0a00f9fd,
0x08f8dbed,
0xea12f814,
0xdd16c704,
0xde05f809,
0x0535fb07,
0xf739e6eb,
0x07631659,
0xe0e7e5ee,
0xf146050f,
0xfb09033e,
0xdb66e54b,
0x02e9f3fa,
0xe74deff7,
0xf55fff52,
0xdd64bff9,
0xf10bf5fd,
0x053509ea,
0xdf2adef9,
0xf6e6d2a5,
0xdfdce207,
0xf00dede0,
0xe729ffdf,
0xdb002246,
0xe2fa07dc,
0xebe1f8f7,
0xddcf01cc,
0xeca04e09,
0xdee4ede2,
0x0fc3f4f4,
0x00e3edcf,
0xf32617e9,
0x03e411ea,
0xfa3ff8ff,
0xf67fef35,
0x0767c004,
0x020e1005,
0xeb72defc,
0xe668fde0,
0xf7f7c9da,
0xe308eee9,
0xdfbcf8e1,
0x0eccefc7,
0xfb9145ec,
0xebdcf2fc,
0xeba3faf7,
0x10b2fd16,
0xfe60dcfd,
0x0404f5e5,
0xda0802f6,
0x0e41de0a,
0xee759dd1,
0xdbe5f6f7,
0x0a5003f9,
0xdb47f2cc,
0xf3eac1f6,
0xffdde2f0,
0xf715f407,
0xff1002e4,
0xe8fc050d,
0xf2dd0f03,
0xed09f004,
0x04e2e806,
0xfae5efdb,
0xe6e8dcdc,
0xe6030fdd,
0xe819fd0d,
0xfb4fc342,
0x050d0de1,
0xeb6fe1fd,
0xff630457,
0xe631c636,
0xfce2fd04,
0xed39f2e5,
0xe93be125,
0xdc16c6f0,
0x0001ecdc,
0xdb2610f5,
0x00290922,
0xf108f512,
0x09f6fdee,
0x0b36eaf3,
0xf33a0d3a,
0xdb44b3fe,
0xf5dce6dd,
0xeb24f2fa,
0x0929122a,
0x1031e3f4,
0xf0efebfb,
0x0b1bf4dc,
0x0325e633,
0xed51cc06,
0x10ebf6f4,
0x083f0adb,
0x0555f610,
0xf1f22b41,
0xfd01da08,
0xf9f8e3e4,
0xed1b0af5,
0x01dd0219,
0xf40df5fd,
0x1211f506,
0x0d011008,
0x0e1601ff,
0x05f41110,
0xf2f4f710,
0x0012fd0d,
0x0a3a280f,
0x0bfdf7f4,
0xf90f0313,
0x0e08fe0e,
0xf814ff23,
0xfaf312f6,
0x09de0b06,
0xf10f0019,
0x0d43f8f0,
0xfcfe0b10,
0x0f2c0e05,
0x0859ff04,
0x0c57acf1,
0x0af8f4fa,
0xf9f6f9fa,
0x10e9fbe4,
0x0aba5a17,
0xf4020403,
0xf3daff0e,
0xf2c011cc,
0x09bd2af2,
0xfbf4fd04,
0x0fb90af9,
0xf4affade,
0xf4f824d8,
0x00fdf0f3,
0xef1106f4,
0x103c0f12,
0xfb27dfd8,
0xfcf311f5,
0x00470b12,
0xf822fdf1,
0x0de11419,
0x09111107,
0x04e406f5,
0x12fa12f1,
0xee0404d1,
0xf20bf514,
0x0cf50af6,
0xfc15f00e,
0x1051df09,
0xf8f4f0f1,
0x04240901,
0x1209064e,
0xef59ec23,
0x01f7fb00,
0x11250f07,
0x0730faf6,
0xefd405df,
0xf6f40b06,
0x0acfeffd,
0xefb30fbf,
0x01c13cd8,
0x0b05ff09,
0xfb210ff9,
0xf62ef5f8,
0x07e0f318,
0x1113100d,
0xfea906ee,
0x12b006b6,
0x0097602e,
0xfefcf9fe,
0xf206fdfc,
0x0bfe122c,
0xf21cfb53,
0x020a0dfd,
0x0b0d0908,
0x0af50722,
0x08d01a3f,
0xf5f50b0c,
0x06df0a0e,
0xfce00ffc,
0x0d1402fb,
0x0c0f0efc,
0xf542fefa,
0xfc27f521,
0x0fd206ec,
0x1205f304,
0xf8bef8ff,
0xf69e05c9,
0x12a81c81,
0x10f90f0a,
0xf6a30a03,
0x0cb8f7c3,
0x07f6f700,
0xf3080f02,
0x11ee08f7,
0xf506f813,
0x08370d2f,
0x0d00ef07,
0xee270c03,
0x100efe0c,
0x0208f928,
0xe9f90402,
0xf7f309f9,
0x0a1902f7,
0xf420df0c,
0xef0dfb0e,
0xfe14f3ee,
0xf31fee1b,
0x064c1b58,
0x01eded00,
0x053b09fe,
0xe723f962,
0xfc7dda48,
0xf6fbfdf5,
0x015c0303,
0x0264f04f,
0xfc2aa3ee,
0x0c0b04f5,
0xefe2fcec,
0xe629f9db,
0x05c6f5b0,
0xea0bfaff,
0xebf5ffeb,
0xe7ffe5d3,
0xfcb04216,
0xff01f0f0,
0x09a4e402,
0xf7c5f8c3,
0xe9bc35f8,
0x01eae6ee,
0x04ddecf0,
0xe9eb03fc,
0xf214fb3a,
0xff000c0b,
0xff5b07f7,
0x0d66ee7f,
0xeb78c645,
0xeb090306,
0xf561f7f7,
0xf23df8e4,
0xe6d9f5a1,
0x0209faf5,
0xf6f2f5f0,
0xf5c905cf,
0x0c040cca,
0xe6e90bf6,
0xebd8e6f0,
0xf1f0e7d6,
0xf30dddc0,
0xeef7faf6,
0xf8c00306,
0x04cbebd6,
0xeb15d2b3,
0xfeefebed,
0xe91dfc01,
0x0d230917,
0xfc38b016,
0xfcfaedf3,
0xed57e8fb,
0x0639f206,
0xf805f523,
0x06f0f006,
0xf32bf209,
0x10070d15,
0xe92cd50e,
0xe7eb08eb,
0xee190df7,
0x0f37f4ee,
0x090bf021,
0x0bf7e905,
0x0b06f30a,
0x0a1af01a,
0x03f0ece8,
0xfa0be706,
0x07110afa,
0xf203ec04,
0x0303f5f7,
0x02e8eefe,
0xe9fe10f3,
0xfe05f11e,
0xeb18c835,
0xf6feede9,
0x0737f7eb,
0xf31b0643,
0xe838af02,
0xe5e4e3f8,
0x0e1ceaf8,
0xff21e6f1,
0xf5f5e5e2,
0xf200ee00,
0xfaec0de8,
0xe60bedff,
0xf6f31df4,
0x02e80b0c,
0xff14050e,
0x0412fe06,
0x0b0a0f39,
0x00e9fd0e,
0x0a19f2f9,
0xf032051b,
0xfa11e20e,
0xfc0efc0b,
0x011cfcf5,
0xfb1b03f6,
0x0519f612,
0xf4f8f508,
0x14000304,
0xfdfb1715,
0x14c93330,
0xf10b1afb,
0x1be3ff00,
0x17f5f724,
0xf1b2181b,
0x1d1b080a,
0x06c61409,
0x17d3fb0f,
0xf3993609,
0x17171215,
0x04e00317,
0xf4dafe0b,
0x18e417f9,
0x170a050e,
0xeffffc0a,
0x030efdcf,
0x00ab4602,
0x190e0ffe,
0xf3a000fd,
0x16980fc9,
0xf39645e0,
0x1c0ff70b,
0x149a19f1,
0x13bfff1a,
0x1afd2c09,
0xfb120604,
0xf7e9ef01,
0x00dc17e5,
0x15bf12e1,
0xfaf71b00,
0xf3b50108,
0xf3a303d9,
0x1add4edc,
0xee06eff5,
0xf5f502f6,
0xf2f613df,
0xeee01bb9,
0x0e120913,
0x0bad1513,
0xf5b1f9bc,
0x0a9a21e6,
0x0e16fd0d,
0xfca904fd,
0x02e211bf,
0x08ca09ec,
0x15f118f1,
0xfdf01416,
0xfec214d0,
0xf0d912ea,
0x1af6fd05,
0x1008fd1a,
0x0de40607,
0x1321d9de,
0x0107040a,
0x1d0e000c,
0xfe221b04,
0x0214f230,
0xf01c1c0b,
0xfcf405fd,
0x09c51419,
0x0bd50b03,
0x09ef0917,
0xf7e3f109,
0x1cde1113,
0x0f27f7d1,
0x0dfc10f5,
0x0ffbf116,
0x1ad50b29,
0x0c0cd9fc,
0xf119121a,
0xee2709fb,
0x112f0335,
0x1d38da5b,
0x06fc01f4,
0x03071215,
0x0a2d050b,
0xfa21fced,
0x0f100200,
0xf6f50811,
0x0109faf0,
0x00d61b3e,
0x14f8f80a,
0x07e0f710,
0x15f7f401,
0x0eba507f,
0x0a041508,
0xf0f10dfb,
0x16e2f730,
0x0b17363d,
0x190818f4,
0x13060706,
0xf32b1624,
0x131dff4d,
0x0b000d0a,
0x00f0f30c,
0xf6fbf8f6,
0xffd22202,
0xf2f7f1f4,
0x0ef01106,
0x06dd04e6,
0x0df31df2,
0x030e0107,
0xf301f403,
0x033308fb,
0xf849f0e9,
0xfd04fff3,
0x0f3d0d08,
0xff320eee,
0x05fbf808,
0xfb00f90b,
0x1111f3f9,
0xfcf3f806,
0xfcf01a0e,
0x05fb0402,
0x02d8f911,
0xf6cf0af1,
0x04ebfdc2,
0x0e0d0708,
0xf8eafb00,
0x06e7ff08,
0xf51cfbd4,
0xf4f71203,
0xfe27020a,
0x05280106,
0xfb27ddd3,
0x0ef8030f,
0x03f90f0f,
0x0ce6f5c2,
0xf9c72bdb,
0x00f40cf2,
0xfdd8020f,
0xf7eb0f04,
0xfe07120f,
0x010c060a,
0xf8f9fafd,
0xf4eaf3f5,
0xfcda1a03,
0x0ef40bf6,
0x00e20b00,
0x03060d23,
0x0664db07,
0xf8f5fb08,
0xf27f0ff3,
0xfc7c1056,
0xf35dcf15,
0x03fb0cf5,
0xfd20f4fa,
0xf10507fb,
0xfbd61b04,
0x01f4fff8,
0xf8d406f6,
0x09f7f908,
0x08072b0d,
0xf508100b,
0x04f0f2fd,
0x04cb0707,
0x0a0706df,
0xf6020a09,
0x08040509,
0xf51f0411,
0xfe43e4f7,
0xf5fbf904,
0x0151f4f5,
0x022400f5,
0xfde61732,
0x0c03090f,
0xf906faf9,
0xfffdf2f0,
0x10d514dc,
0x0907f9fd,
0x06d605f3,
0xfbf9f6e6,
0xf2e227dc,
0x0b01f503,
0xf001fe0a,
0x00060b12,
0x1024f31d,
0xf9020ef2,
0xf12ff704,
0xfc240c22,
0x0443ea27,
0x0a020609,
0x0b130f01,
0x0103040f,
0x0cfcf8ee,
0x00fb000c,
0xf3100f0f,
0x030a0d10,
0x040ff20f,
0xfff8fa02,
0xf2f701f7,
0xf7fefe03,
0xfdfc1cfd,
0xfd0d0d0b,
0xf9fd0206,
0xf9fc0206,
0x0bf5f004,
0x0a06fff9,
0xf4f6f20c,
0x0913ff00,
0xf12deafa,
0x060b090a,
0x0412f909,
0xfb180c01,
0xfa2ee30b,
0x0cfcf904,
0x0f1300f9,
0xf80cf4fe,
0x080d05f8,
0xf5fb00ee,
0x0d1006f7,
0xfe01f11d,
0xf926d11e,
0xf0ff05f3,
0xf10704f6,
0xf6fbf104,
0xf510e30b,
0xfb0df70b,
0xfa18fff1,
0x00eaef03,
0xf004e311,
0x0f08fafa,
0xf8090507,
0x0b12f50e,
0xff30cece,
0x04ff060a,
0x09070d05,
0x0310edd6,
0xfbf0ffe1,
0x0bf4f207,
0xf10df706,
0xf312fc23,
0x0d30ea3e,
0x02f00df9,
0x0cecf4f8,
0x03f4f3e8,
0x07cd2015,
0xf20909ee,
0xf7d5f209,
0xf0f6f322,
0x0e4c022d,
0x0f09fa09,
0x0b6c0308,
0x037f0555,
0xee4ad12c,
0x04ed0b0e,
0x0306fcff,
0xf9f9f90a,
0xffc82d1f,
0x0cf20dee,
0x03d3f0f3,
0x0eeaeeee,
0xfbeb2715,
0xfaf00a04,
0x06ed09ee,
0x0de2f1d7,
0xf1d812d4,
0xee0af000,
0x03e80af2,
0x06f50ed6,
0xfc0403e3,
0x09ecfd07,
0x0c01f8f9,
0x01e8fbbe,
0x00bc1cfc,
0xf7f209ff,
0x0fd90e0c,
0xfee1f0cb,
0x05ea0eb1,
0xfcf6edf6,
0xfae5f203,
0x02f807ce,
0x01e10ec3,
0xf7f5ee0d,
0x0b19ee05,
0xf6031026,
0x0c20ec13,
0xf5f0fb08,
0xfa2eff07,
0x0713f931,
0xf362c9f3,
0xee010df4,
0xee2d05f7,
0x09280337,
0xf157a5da,
0x0109030d,
0xf631f900,
0x014cf2ff,
0xed10bafa,
0xee01f102,
0xf912f007,
0x03f306e8,
0x02d9f702,
0x0cf3fb03,
0x0a07f5fb,
0x00f80107,
0x08fb010d,
0xff0bf601,
0xfdfff40c,
0x03f7f705,
0xf9eb0114,
0xf500fa09,
0xfe08f508,
0xf4fdf820,
0xfc36bc25,
0x08050cf9,
0x051af704,
0xfb06f320,
0xf5f9ddfb,
0x080504f3,
0xf1f2f908,
0x06dc08ea,
0xfbe6fede,
0x0606f605,
0x0701fcfe,
0x0608f907,
0x0a190800,
0xf7f2f2f6,
0xf7130d0a,
0x09100417,
0xfafef626,
0xfef9fe00,
0xfc24f4fd,
0x0231ff43,
0x042f027f,
0x01f907f3,
0xf936fbf3,
0x0a1e0e49,
0xf621f561,
0x07fc0904,
0x0c21f5fa,
0x052b0229,
0x0b160000,
0xf509f1f9,
0xf314f30a,
0x0801020e,
0x0d050016,
0x01fbf4f8,
0x030705f1,
0xf4f407d6,
0xf2cf10e7,
0xfef10bfa,
0x09b9f209,
0xf5b6f2cc,
0x0ac429f0,
0xf3f90cff,
0x06e50df9,
0xf1e306f6,
0x0d1efd18,
0x0cfd09ff,
0x0e2006ff,
0xfa0304f2,
0x0aea0801,
0xf4f201fc,
0xf413fefb,
0xf40af2f4,
0x0cfc0eff,
0x05f10805,
0x0a0006f8,
0xf6faf8d6,
0xfbcf220d,
0xf8000bfa,
0x0bc90bf6,
0x08cffaef,
0xf3f10dd7,
0x03040a07,
0x05ef060b,
0x0a00fefb,
0x010ef8fc,
0x0c04f304,
0xfaee0afa,
0x0bfbf90b,
0xfe0feefb,
0xffff0100,
0x0012f602,
0x09fff700,
0x0aeff4f4,
0xf5fef4ff,
0x03fa09f9,
0xfae6ffea,
0x0dcd0cd2,
0x0203010c,
0xf6e10df5,
0x01e909db,
0x09e600c4,
0xfc04f90b,
0xfdecfc02,
0x0ce509f1,
0xf802f7e4,
0xfdfb08f6,
0xf5020a0b,
0x0cf60202,
0xf30cf401,
0x00f90605,
0xf5f9ff09,
0xf2fc0c13,
0xff12c8fa,
0x02f2f003,
0xf11ef507,
0xfc1f0c1c,
0xf318d5fd,
0x070cf505,
0x041ff1f4,
0xf50d07fa,
0xfaf3010e,
0xf5f9f6f3,
0xf1010901,
0xf0f8fcf1,
0xf6f0f7e6,
0xf108fe01,
0x00ebf1fb,
0x0ced04ec,
0x0ad614e7,
0xfa0afbf7,
0x0d2202fd,
0x052d0731,
0x024abd1e,
0xfdf1fbf1,
0xf33608fe,
0xf161ff0d,
0x021bf722,
0xf209fa0a,
0x0415f3f8,
0xf101fcfe,
0x0aea1b24,
0xfe070302,
0x0207f2f6,
0xf9060835,
0x0a3fe42c,
0x0a070202,
0x0c090602,
0x041ff1e2,
0x09ea02d5,
0xf702f709,
0xef1701fc,
0x01130506,
0xf0fefc00,
0x06effefc,
0xff05050b,
0xfce2f6c9,
0x01a022d9,
0xf9ff05f3,
0xf081090b,
0xf78cfda9,
0x08c929b8,
0xf4f9f2f8,
0x08f1f5fe,
0x0704ffeb,
0xfb2aeb0f,
0x04f003fb,
0x0132f8f7,
0xf1160a18,
0xf119ec15,
0xfefffbf8,
0xfffdf40b,
0xfa0afd05,
0x02011719,
0x08f000f4,
0x0725f105,
0x0106fe1c,
0x0133e0fe,
0x07f1f30b,
0x04020702,
0x09080a0c,
0xf60ae6d1,
0x030a03f5,
0x02e5fd0c,
0x07fef800,
0xfc0fe2f9,
0x00f2fb01,
0x0120f806,
0x0518fb19,
0xfe03e41b,
0xf8fff102,
0xf4ebfc04,
0x07dbefea,
0x0af00fda,
0xf704fa08,
0xf8e5f9f3,
0xf50505fc,
0x06f9ec16,
0x03fdfd0a,
0xfd1ffe07,
0xfb2a073d,
0xf524f10f,
0xfbf6f0f1,
0xf23bfa0a,
0xfa39fb29,
0xf934d311,
0xfcfe0307,
0xfa1c03f5,
0x0825051c,
0x031ce30d,
0xeef4eee4,
0xf9dff8e8,
0x0df7f8ff,
0xe013d70c,
0xf4edf109,
0xfc02ddea,
0xf628e0f2,
0xfb23ac0f,
0xecfbeef0,
0x0229eff6,
0x0430eb1b,
0xf570cf33,
0xf3f203f0,
0xf8390806,
0xfa31f525,
0x0925d71c,
0x0d02f201,
0xe1120ffe,
0xf5d8fce7,
0x0ec814cd,
0xf6faf107,
0xe4f9eef0,
0x0c06040e,
0xee319d0f,
0x0d0cde01,
0xf347ffe4,
0x031dfbf8,
0x0913ec19,
0xf70805e0,
0xdd0f00eb,
0xed32fef7,
0x09faf347,
0xf10107ee,
0x0835ede4,
0xde0cf63e,
0x0367f653,
0xe1fefd0b,
0xf56cf3e3,
0xf0490155,
0xfc4ec92c,
0xe7ecf902,
0xf9110d0d,
0xe4fd0315,
0xf10cd713,
0xdcdce909,
0x0018fde4,
0xfc54ef1e,
0xea52cd14,
0xe7f3f2ea,
0x0217f3f9,
0x09eee8d3,
0xffb017e6,
0xdd06eaf8,
0xe7ccfbdf,
0x0ad8e600,
0xe826dc0a,
0x05e3e207,
0xf021f0ef,
0xe70cf4f2,
0x000ed434,
0x0de8e5e9,
0xf733e7f2,
0xed31ef2d,
0xfd3dc313,
0xf9e3fae3,
0x0b52ed02,
0xe352f818,
0x092cceea,
0xe9e303e1,
0x040feadd,
0x06eee7b9,
0xf49946e0,
0xf1ece5eb,
0xf1cb03f7,
0x0efaef11,
0xe12bf4b7,
0xe0fae7f9,
0xf10a010e,
0xe11901e8,
0xfe20cbce,
0xdde1feec,
0xff20fafb,
0x10f9f014,
0x0600f00c,
0xf4e4f107,
0xe21ef3ee,
0xe6f904fc,
0xe4fb03df,
0xdc04f803,
0x00df0000,
0xfdd4f90d,
0xf842c091,
0xe2f5f000,
0xee5300eb,
0xea360f1b,
0xdd478117,
0xf5e4e602,
0xf549f9ed,
0xf638f42f,
0xe1f9ac06,
0x0c08070e,
0x0d010209,
0xfd030e12,
0x0809e6f5,
0xfd0eff07,
0x0c05fe0f,
0x04180406,
0x03030fec,
0xf8ff0d05,
0x07de1404,
0x07d30fcd,
0x12815dea,
0x0c0508fe,
0x04b61111,
0x06c804ec,
0x13142ae6,
0x0dfb0204,
0xf816080b,
0x00350bfd,
0xf843e519,
0x100d0906,
0xff0a1002,
0x071d0416,
0x130d100f,
0x10100802,
0xfc0813fb,
0x000804f8,
0xfee509f6,
0x00050c0f,
0xf8d910f9,
0x06c1fff9,
0x0ceb17a3,
0x0701ffff,
0x08ec06ff,
0x05021404,
0x1010e6c5,
0x12fa0301,
0x091b0cf8,
0xfdfc02f2,
0x0706f426,
0x0112fb0e,
0xfe070701,
0x0c11fe08,
0x0d07faee,
0x1205130d,
0x0b040b07,
0xfdeefa0c,
0x06ee1ef0,
0xfa0afefd,
0xfff10309,
0xf7101219,
0x12041c10,
0xf8fcf7f9,
0x021f0bfa,
0x0b1f032a,
0xf8ff0016,
0xf901030a,
0x04f6fe10,
0x0b081408,
0xfe010ded,
0x0a0f0a04,
0x03f00f00,
0x0905fef7,
0x08e63415,
0xfd090c0f,
0x11d40707,
0xfece0df1,
0xfee414f1,
0xfa04040e,
0x09e10ef8,
0x0de106f2,
0x10fffe03,
0xfaf9fb03,
0x10fd1313,
0x12fc03f1,
0x0c050923,
0x07fc0907,
0xf914ff0d,
0x120b05ed,
0x0ddb2c1e,
0x09100ef9,
0xfbfafc0d,
0x0cdffcf0,
0x07ef0fde,
0x02fd1208,
0xfbfefe00,
0xf8ec0c13,
0x0b27f205,
0xfafe1301,
0x103bfb0a,
0x0b420c20,
0xf934f03c,
0xfb0711f8,
0x03fd100b,
0x12fefdf0,
0x12df17e6,
0x00fef901,
0xf8dc0b10,
0x0ed0f7da,
0x0cd73ae9,
0x0900f702,
0x00f41213,
0xfff801ff,
0x0b02130c,
0x0cfafe06,
0x0c01f613,
0x0df601f2,
0xfef505e5,
0x1414f60c,
0x0d090f13,
0x1117f5e9,
0x01f808dd,
0x13fd0414,
0x04f9f2f5,
0xf6110bb3,
0x0ab441f4,
0x0906fe0b,
0xfde107fd,
0x10eb04f3,
0xf3e4471e,
0x08f10100,
0x1003090a,
0xf413fa12,
0xf922edfb,
0xfafc1308,
0x120f0ef3,
0x1104f3ea,
0x0af808f7,
0x0b0c1006,
0x0bf40611,
0x0ffdf21d,
0x1202f0c0,
0x14090bf2,
0x0cd014fd,
0xf9e4f2ae,
0x039d059d,
0xf80a1307,
0xf7a80c0c,
0x08a3f3bf,
0xfbea08d5,
0xf803faf2,
0xfc00fd02,
0x090ff9f5,
0xf5da1b11,
0xf6100012,
0x12f6f514,
0xf6a7f6fc,
0x0bda17fc,
0xf315f711,
0x080c0607,
0xf32bff29,
0x0a7fdd0d,
0x0308050b,
0x0c4b1114,
0x1314fa05,
0xfee00d32,
0xf71310fb,
0x13f0fb0b,
0x11fbf330,
0xfa24f915,
0xff0400f7,
0x03d4faf5,
0xffc600eb,
0x0ed036e1,
0x010afb05,
0x06dd0f07,
0x0dfdf636,
0x0463bef6,
0x13010906,
0xf76914fc,
0x074a0302,
0xf30cdd21,
0x0f001206,
0x09e3fb03,
0x07d20cea,
0xf6d627f5,
0x03020a0d,
0x0de1fe13,
0xf7dc00e4,
0x06f72209,
0x130f0211,
0x0abf0ff2,
0xfce003f6,
0x11f1fbea,
0x0605060e,
0x04fbfd02,
0xfe390f04,
0x0048e753,
0xfc0c0910,
0xf23afafb,
0x0e1a0b30,
0x11ee0336,
0x0c0b0901,
0xf906f6f3,
0xfcfd0904,
0x0de41fe1,
0xfc05f209,
0xf1ecfb15,
0xf5f902ea,
0x0feb17f1,
0xfeff11f3,
0xf7e4ecfb,
0xf5fe08e1,
0xfec617f5,
0x0bff0a0c,
0xedd6fffd,
0x0fe1ed0b,
0x10c202e1,
0x00100401,
0x11e50510,
0xfde404f1,
0xeefdef11,
0xec11f8f9,
0x052208f3,
0x15d3f540,
0x0bfefd2b,
0x0004090e,
0xfe1cfa13,
0x0bfb1118,
0xf622e612,
0x08020cf7,
0x01defbfe,
0x09e20ff0,
0xec06fcfb,
0xfdee0a07,
0x0b08f4f2,
0x10e90e13,
0x06dbf81f,
0xfb060306,
0x09f1feec,
0xf91cf1f8,
0x04e1fe5d,
0xfbf40a16,
0xf7fefef6,
0x0ecc0af9,
0x120c2e60,
0x05150911,
0x093712ed,
0xf3331446,
0x0852e06f,
0x05fbf9fd,
0xfd060a01,
0xf80913ed,
0x01120710,
0x0314ff15,
0xf8ed140e,
0x1308f0da,
0xfafed21d,
0xfcf4eeed,
0x06d9fe0a,
0x0cdafdca,
0xfe8143dd,
0x10eafa02,
0x1088fc07,
0x0aa2f9aa,
0xfc9540da,
0xf903150e,
0x03befb11,
0x02aa04f6,
0x12031f11,
0xf20c0201,
0xfc170dee,
0xfd03f630,
0xfb36b7ec,
0xfdfa17f5,
0xff541607,
0x001e0019,
0xf40ee202,
0x1100f80e,
0xeb16160d,
0xebfaf7fd,
0x11d127e5,
0xfef517fc,
0xf69ff806,
0x13a500ca,
0xeee926b4,
0x07f21509,
0xefd10616,
0x15d2f524,
0xee32b6f8,
0xf6f3f4f7,
0x1b23fbfc,
0xf73a051a,
0x173a0633,
0xeff70eeb,
0xff2af802,
0x0521fc12,
0x10e81636,
0x17ef0309,
0xf6d90c03,
0xeec5ffe7,
0x09c403b4,
0x001215ef,
0xf0e716ed,
0x0cff0714,
0x0c50eed1,
0xf9ff17f6,
0x1241f617,
0x1451fb3e,
0x1745b44e,
0xfbef010e,
0x0d0f0f08,
0x0d1206ea,
0xf900fe0c,
0xf5020e08,
0x05f2fc10,
0x0ddffb03,
0x05e91213,
0x1206f902,
0x010306fc,
0xf4050020,
0x0518ec05,
0xf0101206,
0xfb09fff9,
0x07f90b01,
0xee0900fd,
0xfff5f1f4,
0x0eedf212,
0xf40e12f4,
0xef04d0fd,
0xff060e07,
0xfb03020a,
0xfd0503f4,
0x011612f9,
0xf70afd03,
0x14fe0c0a,
0xfd00051a,
0xf205033f,
0xf1030d11,
0x090af20f,
0x0a22063f,
0x0f41d739,
0x03f3000c,
0xf619ff0e,
0xf92afcef,
0xfadafd09,
0xf2fcfb0a,
0x0513ee10,
0x1113f406,
0xf70cf91e,
0x00f5ee07,
0x0402fdf4,
0x020601ed,
0xfbc33e2e,
0xf60afd10,
0x03dbfc05,
0xfcc905ef,
0x06122f2f,
0x10fef7fa,
0x05300f10,
0xf624026d,
0x077fc53e,
0x05f8010f,
0x0d35f504,
0x0f41f407,
0xf3ce140c,
0xf503f512,
0xeff1fd0a,
0xf6dd11e2,
0xf7cd1b05,
0xf403fbf9,
0xecdefe0d,
0x0ae402d1,
0xeeaf2fd5,
0x0a0bee11,
0x02a4f203,
0x0ba804c3,
0x03d93204,
0xf9ff0812,
0xf5eff5f8,
0x0bfcfc03,
0xf2f7103b,
0xfa130ff2,
0xfde0edf3,
0x07dfedf2,
0x0ebb2bf6,
0xff1200ff,
0x0abd110f,
0x05b60ddb,
0x0dee2bc6,
0xfd11fc00,
0xfc1af5fd,
0x05f0ef1c,
0xeff4ebf4,
0x0411f2ff,
0x0be2f2f8,
0x0ab7f0e6,
0x0fdaf7af,
0x06020412,
0x00e30cf8,
0x0fd214dc,
0x09f6dfc3,
0x01ee10f5,
0x11e90b0a,
0x00ea13e7,
0x110800c0,
0x0d00ef03,
0xf9e9fff2,
0x12fa06e8,
0xf7f81af3,
0x03faf4f1,
0xebfa02e9,
0xeced0efc,
0xf41913eb,
0x09f8f6f4,
0xf30a1010,
0xecf5e80e,
0x102eea21,
0xfaf309f3,
0xf51ee8f2,
0x0e10fb26,
0xf510f32a,
0xfb02eefd,
0xfd080be8,
0xeabef327,
0xeefaed37,
0xe8eef80f,
0x02120deb,
0x0bf0ee20,
0xfe35b90e,
0xfdf311f9,
0xeb0f080c,
0xf71bf0fb,
0xf2190631,
0x0d0b14fc,
0xff300deb,
0xfafe0845,
0xeeedfa4f,
0xebfaec01,
0xf4e913ed,
0x0909f410,
0xf121ff4a,
0xff02f207,
0xf4ebf20c,
0xf1070408,
0xf8001931,
0xf2090911,
0xe947fa06,
0xfc2b095f,
0xf345d47f,
0x1002f601,
0x02e10804,
0xe5d8eab8,
0xf7bb311d,
0x11f7f0ee,
0xfdb30ef4,
0xfebdefd7,
0x0ced2e50,
0x03ed07e8,
0x07ffecf9,
0x0b17f747,
0xf238fe2a,
0xf610f7fa,
0x070009f6,
0xf0fc0eba,
0x09ac34cf,
0x0cf5ec0f,
0x079a0a05,
0x11a7fee5,
0x0fcf1afc,
0xf4f11204,
0x11fafc0b,
0xe80d1000,
0xf7bfdbca,
0x04e9f307,
0xf4bcf4f6,
0x06bbf8a8,
0xf6da07f9,
0xe9ef06ef,
0xed0912f4,
0x02f9f514,
0xf2fc0540,
0xf10f070a,
0xf8ed10ed,
0xe7c304eb,
0xeedc32cd,
0xf10b040d,
0xfdbefefe,
0xfade0917,
0x030ef0d7,
0xe80bf80f,
0xf857f215,
0xfc42092c,
0xfb19dc27,
0xf1fdf802,
0x01f20beb,
0x0dcaf20c,
0xfbe71abf,
0x0ff607ec,
0xf6e51114,
0x12c10cef,
0x00fbd8b3,
0x050d1304,
0xf000fef6,
0x021f140c,
0x062bbdc7,
0xf611fdf2,
0x0a31f40a,
0xfc3afb28,
0x0500e027,
0xec0cfcfd,
0xfd08ffff,
0x04f5fefd,
