00000030
0000002a
0000000e
0000002e
0000003b
00000004
00000029
fffffffb
00000009
00000026
ffffffef
ffffffe2
fffffffb
fffffffd
0000003f
ffffffc3
00000037
0000001a
ffffffe7
ffffffd3
ffffffd1
ffffffff
00000015
ffffffc3
00000014
fffffff7
fffffff9
ffffffc8
0000002b
ffffffe5
00000017
0000000e
00000017
fffffffc
ffffffd8
ffffffc0
0000002d
00000026
ffffffc0
00000036
0000000f
0000002d
00000009
00000033
00000008
ffffffe3
fffffff5
0000000b
0000000c
ffffffd5
00000004
0000000a
ffffffcf
ffffffdb
fffffff3
fffffff0
ffffffdf
ffffffef
00000037
00000001
ffffffd1
ffffffc0
00000023
ffffffd4
