11111111
10110110
10000001
11001110
11001110
00010100
11000010
10101100
11010111
11101001
00001011
11001110
11001010
11011100
00000101
00010010
11110110
11100000
00010010
00111000
00111011
00111010
01000011
01000100
01010100
10101010
11011110
11001100
11101010
11110001
11111100
00110110
00111111
01000101
00011111
00001011
01010100
01111111
00111011
00101110
11111110
00100110
00111100
00110000
00000001
11101001
11111110
11100011
11101000
11000000
10001100
10101001
10011000
10011000
10101100
11010100
00001111
00001101
00010100
00000110
00100100
01001010
01000010
01010100
00101101
01001111
01111111
01111000
01101001
01001010
00110111
01100010
00101101
00010110
00010001
11000011
11010100
11011110
11110011
11100110
00000010
00011110
00101100
01001110
00101000
00011010
01011100
01111111
00101011
00011100
00010101
00111011
00100111
00011110
11111111
11111011
00100001
00001000
11101010
11001100
10101111
10101100
10011101
10111110
11011010
11000011
10000001
10101011
11001101
00000101
11011000
10110110
11011101
11101001
00010110
11111000
11010001
11110001
00001111
01000010
00010100
00101101
00111111
01011000
01100100
11011111
00000011
00111100
00111011
00110110
11110100
01000110
01111111
01001000
00111000
11110000
00110111
01001010
00101111
00001111
11101011
00011011
00100111
00000111
11101100
10101011
11000101
10110001
10110101
10010111
