11111111111111111111111111111111
11111111111111111111111110110110
11111111111111111111111110000001
11111111111111111111111111001110
11111111111111111111111111001110
00000000000000000000000000010100
11111111111111111111111111000010
11111111111111111111111110101100
11111111111111111111111111010111
11111111111111111111111111101001
00000000000000000000000000001011
11111111111111111111111111001110
11111111111111111111111111001010
11111111111111111111111111011100
00000000000000000000000000000101
00000000000000000000000000010010
11111111111111111111111111110110
11111111111111111111111111100000
00000000000000000000000000010010
00000000000000000000000000111000
00000000000000000000000000111011
00000000000000000000000000111010
00000000000000000000000001000011
00000000000000000000000001000100
00000000000000000000000001010100
11111111111111111111111110101010
11111111111111111111111111011110
11111111111111111111111111001100
11111111111111111111111111101010
11111111111111111111111111110001
11111111111111111111111111111100
00000000000000000000000000110110
00000000000000000000000000111111
00000000000000000000000001000101
00000000000000000000000000011111
00000000000000000000000000001011
00000000000000000000000001010100
00000000000000000000000001111111
00000000000000000000000000111011
00000000000000000000000000101110
11111111111111111111111111111110
00000000000000000000000000100110
00000000000000000000000000111100
00000000000000000000000000110000
00000000000000000000000000000001
11111111111111111111111111101001
11111111111111111111111111111110
11111111111111111111111111100011
11111111111111111111111111101000
11111111111111111111111111000000
11111111111111111111111110001100
11111111111111111111111110101001
11111111111111111111111110011000
11111111111111111111111110011000
11111111111111111111111110101100
11111111111111111111111111010100
00000000000000000000000000001111
00000000000000000000000000001101
00000000000000000000000000010100
00000000000000000000000000000110
00000000000000000000000000100100
00000000000000000000000001001010
00000000000000000000000001000010
00000000000000000000000001010100
00000000000000000000000000101101
00000000000000000000000001001111
00000000000000000000000001111111
00000000000000000000000001111000
00000000000000000000000001101001
00000000000000000000000001001010
00000000000000000000000000110111
00000000000000000000000001100010
00000000000000000000000000101101
00000000000000000000000000010110
00000000000000000000000000010001
11111111111111111111111111000011
11111111111111111111111111010100
11111111111111111111111111011110
11111111111111111111111111110011
11111111111111111111111111100110
00000000000000000000000000000010
00000000000000000000000000011110
00000000000000000000000000101100
00000000000000000000000001001110
00000000000000000000000000101000
00000000000000000000000000011010
00000000000000000000000001011100
00000000000000000000000001111111
00000000000000000000000000101011
00000000000000000000000000011100
00000000000000000000000000010101
00000000000000000000000000111011
00000000000000000000000000100111
00000000000000000000000000011110
11111111111111111111111111111111
11111111111111111111111111111011
00000000000000000000000000100001
00000000000000000000000000001000
11111111111111111111111111101010
11111111111111111111111111001100
11111111111111111111111110101111
11111111111111111111111110101100
11111111111111111111111110011101
11111111111111111111111110111110
11111111111111111111111111011010
11111111111111111111111111000011
11111111111111111111111110000001
11111111111111111111111110101011
11111111111111111111111111001101
00000000000000000000000000000101
11111111111111111111111111011000
11111111111111111111111110110110
11111111111111111111111111011101
11111111111111111111111111101001
00000000000000000000000000010110
11111111111111111111111111111000
11111111111111111111111111010001
11111111111111111111111111110001
00000000000000000000000000001111
00000000000000000000000001000010
00000000000000000000000000010100
00000000000000000000000000101101
00000000000000000000000000111111
00000000000000000000000001011000
00000000000000000000000001100100
11111111111111111111111111011111
00000000000000000000000000000011
00000000000000000000000000111100
00000000000000000000000000111011
00000000000000000000000000110110
11111111111111111111111111110100
00000000000000000000000001000110
00000000000000000000000001111111
00000000000000000000000001001000
00000000000000000000000000111000
11111111111111111111111111110000
00000000000000000000000000110111
00000000000000000000000001001010
00000000000000000000000000101111
00000000000000000000000000001111
11111111111111111111111111101011
00000000000000000000000000011011
00000000000000000000000000100111
00000000000000000000000000000111
11111111111111111111111111101100
11111111111111111111111110101011
11111111111111111111111111000101
11111111111111111111111110110001
11111111111111111111111110110101
11111111111111111111111110010111
