11111111111111111111111110110111
11111111111111111111111111011111
00000000000000000000000000011001
00000000000000000000000000011010
00000000000000000000000000101101
11111111111111111111111111100100
00000000000000000000000000111110
00000000000000000000000001010010
00000000000000000000000001110110
00000000000000000000000001010101
00000000000000000000000000000011
00000000000000000000000000110111
00000000000000000000000001111111
00000000000000000000000001110101
00000000000000000000000001001100
11111111111111111111111110111110
00000000000000000000000000111000
00000000000000000000000001100011
00000000000000000000000000100111
00000000000000000000000000000000
11111111111111111111111110010100
11111111111111111111111111011111
11111111111111111111111110111101
11111111111111111111111110100000
11111111111111111111111110010011
11111111111111111111111111110010
11111111111111111111111111100011
11111111111111111111111111010101
11111111111111111111111111100010
00000000000000000000000000010101
11111111111111111111111110101101
11111111111111111111111110101011
11111111111111111111111110000010
11111111111111111111111111001010
11111111111111111111111111111000
11111111111111111111111110111001
11111111111111111111111110000001
11111111111111111111111111001001
11111111111111111111111111010001
00000000000000000000000000000100
11111111111111111111111111000110
11111111111111111111111110110100
11111111111111111111111111011001
11111111111111111111111111110010
00000000000000000000000001000100
11111111111111111111111111110110
11111111111111111111111111100111
00000000000000000000000000100011
00000000000000000000000001001110
00000000000000000000000001101011
11111111111111111111111111000000
11111111111111111111111111010011
11111111111111111111111111010010
11111111111111111111111111110010
00000000000000000000000000001000
11111111111111111111111111101010
00000000000000000000000000011001
00000000000000000000000000110100
00000000000000000000000001010010
00000000000000000000000000011111
00000000000000000000000000100100
00000000000000000000000001000100
00000000000000000000000001111111
00000000000000000000000000110001
00000000000000000000000000011000
00000000000000000000000000001111
00000000000000000000000001000101
00000000000000000000000000110111
00000000000000000000000000011011
11111111111111111111111111111001
00000000000000000000000000011000
00000000000000000000000001011010
00000000000000000000000000101010
11111111111111111111111111111011
11111111111111111111111111010111
11111111111111111111111111111000
00000000000000000000000001010110
00000000000000000000000001001110
00000000000000000000000001010111
00000000000000000000000000110111
00000000000000000000000001000100
00000000000000000000000001100111
00000000000000000000000001100110
00000000000000000000000000111101
00000000000000000000000000110001
00000000000000000000000000101011
00000000000000000000000001101000
00000000000000000000000000111100
00000000000000000000000001000110
11111111111111111111111111110111
11111111111111111111111111111011
00000000000000000000000000011011
00000000000000000000000000000000
00000000000000000000000000010111
11111111111111111111111111001001
11111111111111111111111110101111
11111111111111111111111110110011
11111111111111111111111110110001
11111111111111111111111110110101
11111111111111111111111110000001
11111111111111111111111111011110
11111111111111111111111111100101
11111111111111111111111110110110
11111111111111111111111110110110
11111111111111111111111111010000
11111111111111111111111111011101
11111111111111111111111110100101
11111111111111111111111110000001
11111111111111111111111111000001
11111111111111111111111111011010
11111111111111111111111111100100
11111111111111111111111110110001
11111111111111111111111110111000
11111111111111111111111111011100
00000000000000000000000000001000
00000000000000000000000000000001
11111111111111111111111111011000
11111111111111111111111111101000
11111111111111111111111111110010
00000000000000000000000000111010
00000000000000000000000000000010
00000000000000000000000000000011
00000000000000000000000000101011
00000000000000000000000000110010
00000000000000000000000001110011
11111111111111111111111111001100
11111111111111111111111110110001
11111111111111111111111110101100
11111111111111111111111110111000
11111111111111111111111111000111
11111111111111111111111111101010
11111111111111111111111111101011
11111111111111111111111111111001
00000000000000000000000000001001
11111111111111111111111111110010
00000000000000000000000000110101
00000000000000000000000000101001
00000000000000000000000000100101
00000000000000000000000000100101
00000000000000000000000000101011
00000000000000000000000001101001
00000000000000000000000001111111
00000000000000000000000001101011
00000000000000000000000001011100
00000000000000000000000000111110
00000000000000000000000000111011
00000000000000000000000001001001
00000000000000000000000000011100
00000000000000000000000000110011
00000000000000000000000000011111
