ffffffff
ffffffb6
ffffff81
ffffffce
ffffffce
00000014
ffffffc2
ffffffac
ffffffd7
ffffffe9
0000000b
ffffffce
ffffffca
ffffffdc
00000005
00000012
fffffff6
ffffffe0
00000012
00000038
0000003b
0000003a
00000043
00000044
00000054
ffffffaa
ffffffde
ffffffcc
ffffffea
fffffff1
fffffffc
00000036
0000003f
00000045
0000001f
0000000b
00000054
0000007f
0000003b
0000002e
fffffffe
00000026
0000003c
00000030
00000001
ffffffe9
fffffffe
ffffffe3
ffffffe8
ffffffc0
ffffff8c
ffffffa9
ffffff98
ffffff98
ffffffac
ffffffd4
0000000f
0000000d
00000014
00000006
00000024
0000004a
00000042
00000054
0000002d
0000004f
0000007f
00000078
00000069
0000004a
00000037
00000062
0000002d
00000016
00000011
ffffffc3
ffffffd4
ffffffde
fffffff3
ffffffe6
00000002
0000001e
0000002c
0000004e
00000028
0000001a
0000005c
0000007f
0000002b
0000001c
00000015
0000003b
00000027
0000001e
ffffffff
fffffffb
00000021
00000008
ffffffea
ffffffcc
ffffffaf
ffffffac
ffffff9d
ffffffbe
ffffffda
ffffffc3
ffffff81
ffffffab
ffffffcd
00000005
ffffffd8
ffffffb6
ffffffdd
ffffffe9
00000016
fffffff8
ffffffd1
fffffff1
0000000f
00000042
00000014
0000002d
0000003f
00000058
00000064
ffffffdf
00000003
0000003c
0000003b
00000036
fffffff4
00000046
0000007f
00000048
00000038
fffffff0
00000037
0000004a
0000002f
0000000f
ffffffeb
0000001b
00000027
00000007
ffffffec
ffffffab
ffffffc5
ffffffb1
ffffffb5
ffffff97
